/**
  ******************************************************************************
  * @file    network_ecblobs.h
  * @brief   NN Code autogenerated DO NOT MODIFY IT
  ******************************************************************************
  * @attention
  *
  * Copyright (c) 2024 STMicroelectronics.
  * All rights reserved.
  *
  * This software is licensed under terms that can be found in the LICENSE file
  * in the root directory of this software component.
  * If no LICENSE file comes with this software, it is provided AS-IS.
  *
  ******************************************************************************
  */


#ifdef __cplusplus
extern "C" {
#endif

#include "ll_aton_caches_interface.h"

#include <string.h>

#if !defined(ECBLOB_CONST_SECTION)
#define ECBLOB_CONST_SECTION /* Empty */
#endif
#if !defined(ECBLOB_RUNTIME_SECTION)
#define ECBLOB_RUNTIME_SECTION /* Empty */
#endif

ECBLOB_CONST_SECTION
// aligned to the cache line size (equal to 64 bytes)
__attribute__((aligned(64)))
static const uint64_t _ec_blob_network_1[688] =
{
  0x00000553ca057a7aUL, 0x008022410000003dUL, 0x080000005c000042UL, 0x5c027c0015000000UL,
  0x5c07004300070000UL, 0x0000002000004000UL, 0x000000005c0c0043UL, 0x008020c110411041UL,
  0x000801002c007c00UL, 0x342e00002c020043UL, 0x2c0500c300019000UL, 0x0001900000000000UL,
  0x0000000000000000UL, 0x0010000000000024UL, 0x000000062c0c0042UL, 0x2c0d004300000007UL,
  0x3432b03f00000003UL, 0x000000002c110043UL, 0x0080208100000000UL, 0x0008000824007c00UL,
  0x3427000024020123UL, 0x0003000101400140UL, 0x00000001000003c0UL, 0x0004b00000000003UL,
  0x0010000000000024UL, 0x00000006240c0042UL, 0x240d004300000007UL, 0x342bb03f00000003UL,
  0x0000000024110043UL, 0x10067c0000000000UL, 0x101e7c0000000025UL, 0x10007c000000000dUL,
  0x2400200100000001UL, 0x2c0020015c002001UL, 0x0000006424007fe4UL, 0x10007c0000000000UL,
  0x1000042400000002UL, 0x0000000000000064UL, 0x4000000010007c00UL, 0x0000006410007bc4UL,
  0x10067c0000000000UL, 0x101e7c0000000000UL, 0x24007c0000000000UL, 0x2400042400000002UL,
  0x0000000000000064UL, 0x4000000024007c00UL, 0x0000006424007bc4UL, 0x0080008100000000UL,
  0x080000025c007c00UL, 0x000000645c000424UL, 0x5c007c0000000000UL, 0x5c007bc448000000UL,
  0x0000000000000064UL, 0x2c007c0000800241UL, 0x2c00042400000002UL, 0x0000000000000064UL,
  0x400000002c007c00UL, 0x000000642c007bc4UL, 0x008000c100000000UL, 0x008021410000005dUL,
  0x001000343c007c00UL, 0x080303033c0200e3UL, 0x1063410100002211UL, 0x03bf0000014003c0UL,
  0x00000001013f0000UL, 0x000000003c0a7c00UL, 0x000000003c0d7c00UL, 0x6000004200802261UL,
  0x156000fc08000000UL, 0x000b800060020123UL, 0x0000000700000000UL, 0x00063fff00031fffUL,
  0x00000000000056e5UL, 0x0000000107c403f9UL, 0x00000000600c0043UL, 0x600b7c0020422042UL,
  0x6100040300000001UL, 0x0000bdb602b956e5UL, 0x0000de6206e156e5UL, 0x00000a67030256e5UL,
  0x00006b1502df56e5UL, 0x00006894097656e5UL, 0x00004e87029856e5UL, 0x00001922067656e5UL,
  0x00007967067856e5UL, 0x00008443038256e5UL, 0x0000fe7c031156e5UL, 0x00007146060756e5UL,
  0x00005420038156e5UL, 0x0000b7f6ffd256e5UL, 0x0000813f02ed56e5UL, 0x0000b526fc4e56e5UL,
  0x0000002e02e456e5UL, 0x54007c0000802201UL, 0x540200430174104cUL, 0x0210320f00087f80UL,
  0x0000000055000203UL, 0x0000000200000001UL, 0x0000000400000003UL, 0x0000000600000005UL,
  0x000000cf000000c7UL, 0x0000005800000017UL, 0x0000001b0000001aUL, 0x0000001d0000001cUL,
  0x56000983000000deUL, 0x0000c10000000000UL, 0x0000c10000000000UL, 0x0000c10000000000UL,
  0x0000c10000000000UL, 0x0000c10000000000UL, 0x0000c10000000000UL, 0x0000c10000000000UL,
  0x0000c10000000000UL, 0x0000c10000000000UL, 0x0000c10000000000UL, 0x0000c10000000000UL,
  0x0000c08000000000UL, 0x0000c08000000000UL, 0x0000c08000000000UL, 0x0000c08000000000UL,
  0x0000c08010000000UL, 0x0000bf8020000000UL, 0x0000bf8020000000UL, 0x0000bf8020000000UL,
  0x0000bf8020000000UL, 0x0000ba8030000000UL, 0x0000c00020000000UL, 0x0000c00020000000UL,
  0x0000c00020000000UL, 0x0000c00020000000UL, 0x0000a60b42d8fd28UL, 0x0000c08020000000UL,
  0x0000c08020000000UL, 0x0000c08020000000UL, 0x0000c08020000000UL, 0x0000c08020000000UL,
  0x0000c08020000000UL, 0x0000c08020000000UL, 0x0000c08020000000UL, 0x0000c08020000000UL,
  0x0000c08020000000UL, 0x0000c08020000000UL, 0x0000c08020000000UL, 0x20007c0000802061UL,
  0x2002004300080100UL, 0x0004b00034270000UL, 0x00000000200500c3UL, 0x000000010004b000UL,
  0x0000002400000000UL, 0x200c004200100000UL, 0x0000000700000006UL, 0x00000002200d0043UL,
  0x20110043342bb03fUL, 0x0000000000000000UL, 0x34007c0000802101UL, 0x3402004300080184UL,
  0x000001b0704e6a10UL, 0x00000000340500c3UL, 0x0000000000000000UL, 0x0000002400000000UL,
  0x340c004200100000UL, 0x0000000700000006UL, 0x00000001340d0043UL, 0x34110043704e6bffUL,
  0x0000000800000000UL, 0x2c007c00008020c1UL, 0x2c02012300080008UL, 0x00a000a0342e0000UL,
  0x00000a0000100008UL, 0x0000000200000008UL, 0x0000002400064000UL, 0x2c0c004200100000UL,
  0x0000000700000006UL, 0x000000022c0d0043UL, 0x2c1100433434403fUL, 0x0000000000000000UL,
  0x0000002110087c00UL, 0x00000007100c0043UL, 0x101c7c0000000011UL, 0x10207c0000000027UL,
  0x10007c0000000015UL, 0x2c00200100000001UL, 0x001000353c007c00UL, 0x6000200154002001UL,
  0x3400200120002001UL, 0x000000642c007fe4UL, 0x10007c0000000000UL, 0x1000042400000002UL,
  0x0000000000000064UL, 0x4000000010007c00UL, 0x0000006410007bc4UL, 0x10087c0000000000UL,
  0x100c004300000000UL, 0x0000000000000000UL, 0x00000000101c7c00UL, 0x0000000010207c00UL,
  0x000000022c007c00UL, 0x000000642c000424UL, 0x2c007c0000000000UL, 0x2c007bc440000000UL,
  0x0000000000000064UL, 0x3c007c00008000c1UL, 0x3c00042400000002UL, 0x0000000000000064UL,
  0x400000003c007c00UL, 0x000000643c007bc4UL, 0x0080014100000000UL, 0x0088108254007c00UL,
  0x0000006454000424UL, 0x54007c0000000000UL, 0x54007bc440881080UL, 0x0000000000000064UL,
  0x60007c0000800201UL, 0x6000042408000002UL, 0x0000000000000064UL, 0x4800000060007c00UL,
  0x0000006460007bc4UL, 0x0080026100000000UL, 0x0000000220007c00UL, 0x0000006420000424UL,
  0x20007c0000000000UL, 0x20007bc440000000UL, 0x0000000000000064UL, 0x34007c0000800061UL,
  0x3400042400000002UL, 0x0000000000000064UL, 0x4000000034007c00UL, 0x0000006434007bc4UL,
  0x0080010100000000UL, 0x008021610000007dUL, 0x0000005440007c00UL, 0x04040303400200e3UL,
  0x10b7400100002211UL, 0x027f000000a00280UL, 0x00030010009f0000UL, 0x00000000400a7c00UL,
  0x00ffff82400c0043UL, 0x0080218100000000UL, 0x0000004044007c00UL, 0x04040303440200e3UL,
  0x10b7400000002211UL, 0x027f000000a00280UL, 0x00070410009f0000UL, 0x00000000440a7c00UL,
  0x00ffff82440c0043UL, 0x008021a100000000UL, 0x0000004048007c00UL, 0x04040303480200e3UL,
  0x10b7400000002211UL, 0x027f000000a00280UL, 0x000b0810009f0000UL, 0x00000000480a7c00UL,
  0x00ffff82480c0043UL, 0x0080214100000000UL, 0x000000403c007c00UL, 0x040403033c0200e3UL,
  0x10a3410000002211UL, 0x027f000000a00280UL, 0x000f0c10009f0000UL, 0x000000003c0a7c00UL,
  0x00ffff823c0c0043UL, 0x0080228100000000UL, 0x0800000064000042UL, 0x64020123156000fcUL,
  0x00000000000b0000UL, 0x000063ff00000003UL, 0x00006df800031fffUL, 0x078403fd00000000UL,
  0x640c004300000001UL, 0x2042204200000000UL, 0x00000001640b7c00UL, 0xff816df865000803UL,
  0xff996df80000b656UL, 0x00786df800001fb4UL, 0xffdb6df80000b724UL, 0xff326df800004719UL,
  0x00df6df8000074daUL, 0x00946df80000cff7UL, 0x008a6df80000a332UL, 0xff356df800008ae6UL,
  0x008a6df80000ada0UL, 0x012a6df80000c1e3UL, 0x001e6df80000c5beUL, 0xffe76df80000b868UL,
  0x00586df80000f338UL, 0x00046df80000b65eUL, 0xffdf6df80000843bUL, 0x006d6df80000c9c9UL,
  0x00b16df800008bebUL, 0xff6f6df80000a22dUL, 0xff276df80000e293UL, 0xffc76df80000b799UL,
  0x00b26df80000bb76UL, 0xff2f6df800007e1fUL, 0x004b6df800000517UL, 0xffea6df80000d344UL,
  0xffc46df80000870aUL, 0x00b86df8000082afUL, 0x007e6df800004ab7UL, 0x009d6df80000f1b5UL,
  0x001f6df80000039eUL, 0x00fc6df80000cb55UL, 0x013c6df8000060fbUL, 0x008022210000d07eUL,
  0x0174104c58007c00UL, 0x00087f8058020043UL, 0x590002030210220fUL, 0x0000000100000000UL,
  0x0000000300000002UL, 0x0000000500000004UL, 0x000000c700000006UL, 0x00000017000000cfUL,
  0x0000001900000018UL, 0x0000001b0000001aUL, 0x000000dd0000001cUL, 0x000000005a000943UL,
  0x000000000000c080UL, 0x000000000000c080UL, 0x000000000000c080UL, 0x000000000000c080UL,
  0x000000000000c080UL, 0x000000000000c080UL, 0x000000000000c080UL, 0x000000000000c080UL,
  0x000000000000c080UL, 0x000000000000c080UL, 0x000000000000c080UL, 0x000000000000c080UL,
  0xe00000000000c080UL, 0x200000000000be80UL, 0x400000000000c100UL, 0x400000000000c100UL,
  0x400000000000c180UL, 0x400000000000c180UL, 0x400000000000c180UL, 0x400000000000c180UL,
  0x400000000000c180UL, 0x400000000000c180UL, 0x400000000000c180UL, 0x400000000000c180UL,
  0x7700fe000000c180UL, 0x400000000000aa0fUL, 0x400000000000c100UL, 0x400000000000c100UL,
  0x400000000000c100UL, 0x400000000000c100UL, 0x400000000000c100UL, 0x400000000000c100UL,
  0x400000000000c100UL, 0x400000000000c100UL, 0x400000000000c100UL, 0x200000000000c100UL,
  0x0080202100000000UL, 0x0008c00018007c00UL, 0x342e000018020123UL, 0x0010000400a000a0UL,
  0x0000001000000a00UL, 0x0000000000000001UL, 0x0010000000000024UL, 0x00000006180c0042UL,
  0x180d004300000007UL, 0x3434403f00000008UL, 0x0000000018110043UL, 0x0080204100000000UL,
  0x0008c1841c007c00UL, 0x704dfc101c020043UL, 0x1c0500c300001200UL, 0x0000000000000000UL,
  0x0000000000000000UL, 0x0010000000000024UL, 0x000000061c0c0042UL, 0x1c0d004300000007UL,
  0x704e0e4f00000001UL, 0x000000001c110043UL, 0x008020e100000008UL, 0x0008c00030007c00UL,
  0x342e000430020123UL, 0x0010000400a000a0UL, 0x0000001000000a00UL, 0x0000000000000001UL,
  0x0010000000000024UL, 0x00000006300c0042UL, 0x300d004300000007UL, 0x3434403f00000008UL,
  0x0000000030110043UL, 0x0080208100000000UL, 0x0008c00024007c00UL, 0x342e000824020123UL,
  0x0010000400a000a0UL, 0x0000001000000a00UL, 0x0000000000000001UL, 0x0010000000000024UL,
  0x00000006240c0042UL, 0x240d004300000007UL, 0x3434403f00000008UL, 0x0000000024110043UL,
  0x0080210100000000UL, 0x0008c00034007c00UL, 0x342e000c34020123UL, 0x0010000400a000a0UL,
  0x0000001000000a00UL, 0x0000000000000001UL, 0x0010000000000024UL, 0x00000006340c0042UL,
  0x340d004300000007UL, 0x3434403f00000008UL, 0x0000000034110043UL, 0x0080212100000000UL,
  0x0008000838007c00UL, 0x3427000038020123UL, 0x0020000400500050UL, 0x0000000400000a00UL,
  0x0003200000000008UL, 0x0010000000000024UL, 0x00000006380c0042UL, 0x380d004300000007UL,
  0x342a203f00000008UL, 0x0000000038110043UL, 0x100b00c300000000UL, 0x0000001100000023UL,
  0x0000001b00000005UL, 0x0000000500000003UL, 0x0000000f101200c3UL, 0x0000001700000005UL,
  0x0000000500000009UL, 0x101d7c0000000019UL, 0x10227c0000000029UL, 0x10007c0000000015UL,
  0x3800200100000001UL, 0x000000413c007c00UL, 0x0000005540007c00UL, 0x0000004144007c00UL,
  0x0000004148007c00UL, 0x6400200158002001UL, 0x1c00200118002001UL, 0x3000200124002001UL,
  0x38007fe434002001UL, 0x0000000000000064UL, 0x0000000210007c00UL, 0x0000006410000424UL,
  0x10007c0000000000UL, 0x10007bc440000000UL, 0x0000000000000064UL, 0x00000000100b00c3UL,
  0x0000000000000000UL, 0x0000000000000000UL, 0x101200c300000000UL, 0x0000000000000000UL,
  0x0000000000000000UL, 0x0000000000000000UL, 0x00000000101d7c00UL, 0x0000000010227c00UL,
  0x0000000238007c00UL, 0x0000006438000424UL, 0x38007c0000000000UL, 0x38007bc440000000UL,
  0x0000000000000064UL, 0x3c007c0000800121UL, 0x3c00042400000002UL, 0x0000000000000064UL,
  0x400000003c007c00UL, 0x000000643c007bc4UL, 0x0080014100000000UL, 0x0000000240007c00UL,
  0x0000006440000424UL, 0x40007c0000000000UL, 0x40007bc440000000UL, 0x0000000000000064UL,
  0x44007c0000800161UL, 0x4400042400000002UL, 0x0000000000000064UL, 0x4000000044007c00UL,
  0x0000006444007bc4UL, 0x0080018100000000UL, 0x0000000248007c00UL, 0x0000006448000424UL,
  0x48007c0000000000UL, 0x48007bc440000000UL, 0x0000000000000064UL, 0x58007c00008001a1UL,
  0x5800042400881082UL, 0x0000000000000064UL, 0x4088108058007c00UL, 0x0000006458007bc4UL,
  0x0080022100000000UL, 0x0800000264007c00UL, 0x0000006464000424UL, 0x64007c0000000000UL,
  0x64007bc448000000UL, 0x0000000000000064UL, 0x18007c0000800281UL, 0x1800042400000002UL,
  0x0000000000000064UL, 0x4000000018007c00UL, 0x0000006418007bc4UL, 0x0080002100000000UL,
  0x000000021c007c00UL, 0x000000641c000424UL, 0x1c007c0000000000UL, 0x1c007bc440000000UL,
  0x0000000000000064UL, 0x24007c0000800041UL, 0x2400042400000002UL, 0x0000000000000064UL,
  0x4000000024007c00UL, 0x0000006424007bc4UL, 0x0080008100000000UL, 0x0000000230007c00UL,
  0x0000006430000424UL, 0x30007c0000000000UL, 0x30007bc440000000UL, 0x0000000000000064UL,
  0x34007c00008000e1UL, 0x3400042400000002UL, 0x0000000000000064UL, 0x4000000034007c00UL,
  0x0000006434007bc4UL, 0x0080010100000000UL, 0x008021410000009dUL, 0x000000543c007c00UL,
  0x101001013c0200e3UL, 0x10b7400200001100UL, 0x04ff000000500500UL, 0x000f0020004f0000UL,
  0x000000003c0a7c00UL, 0x00ffff813c0c0043UL, 0x0080216100000000UL, 0x0000004040007c00UL,
  0x10100101400200e3UL, 0x10a3420000001100UL, 0x04ff000000500500UL, 0x001f1020004f0000UL,
  0x00000000400a7c00UL, 0x00ffff81400c0043UL, 0x008022a100000000UL, 0x0800000068000042UL,
  0x68020123156000fcUL, 0x00000000000a0000UL, 0x00018fff0000000fUL, 0x000078e000031fffUL,
  0x078403f100000000UL, 0x680c004300000001UL, 0x2042204200000000UL, 0x00000001680b7c00UL,
  0x04b478e069000803UL, 0x048078e000009275UL, 0x047978e00000294aUL, 0x04a378e00000ab40UL,
  0x048178e000003849UL, 0x04c578e00000577aUL, 0x044178e0000073c0UL, 0x04a678e000003ea4UL,
  0x047878e00000a4a2UL, 0x047978e00000d7b8UL, 0x047c78e000008d08UL, 0x046a78e00000f961UL,
  0x04ae78e00000ad75UL, 0x049278e00000e7f3UL, 0x04aa78e000007535UL, 0x047178e0000010faUL,
  0x048178e000000d46UL, 0x048678e000001b0aUL, 0x044578e00000891bUL, 0x049c78e00000baf5UL,
  0x046f78e00000d877UL, 0x048c78e00000c0deUL, 0x047578e00000cab4UL, 0x047778e0000010b7UL,
  0x046d78e000001270UL, 0x047678e00000fb96UL, 0x049d78e000003ee8UL, 0x046078e00000ca38UL,
  0x047e78e000000dc3UL, 0x048878e00000dce1UL, 0x046978e000008ad3UL, 0x04d378e000000665UL,
  0x008020c100007fcbUL, 0x0008c0002c007c00UL, 0x342700002c020123UL, 0x0020001000500050UL,
  0x0000002000000a00UL, 0x0000000000000001UL, 0x0010000000000024UL, 0x000000062c0c0042UL,
  0x2c0d004300000007UL, 0x342a203f00000002UL, 0x000000002c110043UL, 0x0080202100000000UL,
  0x0008c18418007c00UL, 0x704e661018020043UL, 0x180500c300000400UL, 0x0000000000000000UL,
  0x0000000000000000UL, 0x0010000000000024UL, 0x00000006180c0042UL, 0x180d004300000007UL,
  0x704e6a4f00000001UL, 0x0000000018110043UL, 0x0080206100000008UL, 0x0008c00020007c00UL,
  0x3427001020020123UL, 0x0020001000500050UL, 0x0000002000000a00UL, 0x0000000000000001UL,
  0x0010000000000024UL, 0x00000006200c0042UL, 0x200d004300000007UL, 0x342a203f00000002UL,
  0x0000000020110043UL, 0x008020e100000000UL, 0x0008000830007c00UL, 0x342e000030020123UL,
  0x0020001000500050UL, 0x0000001000000a00UL, 0x0003200000000002UL, 0x0010000000000024UL,
  0x00000006300c0042UL, 0x300d004300000007UL, 0x3431203f00000002UL, 0x0000000030110043UL,
  0x10097c0000000000UL, 0x100c00430000002bUL, 0x000000030000000dUL, 0x00000007100f0063UL,
  0x0000001500000003UL, 0x0000001710247c00UL, 0x0000000110007c00UL, 0x3c007c0030002001UL,
  0x40007c0000000055UL, 0x6800200100000041UL, 0x2000200118002001UL, 0x30007fe42c002001UL,
  0x0000000000000064UL, 0x0000000210007c00UL, 0x0000006410000424UL, 0x10007c0000000000UL,
  0x10007bc440000000UL, 0x0000000000000064UL, 0x0000000010097c00UL, 0x00000000100c0043UL,
  0x100f006300000000UL, 0x0000000000000000UL, 0x10247c0000000000UL, 0x30007c0000000000UL,
  0x3000042400000002UL, 0x0000000000000064UL, 0x4000000030007c00UL, 0x0000006430007bc4UL,
  0x008000e100000000UL, 0x000000023c007c00UL, 0x000000643c000424UL, 0x3c007c0000000000UL,
  0x3c007bc440000000UL, 0x0000000000000064UL, 0x40007c0000800141UL, 0x4000042400000002UL,
  0x0000000000000064UL, 0x4000000040007c00UL, 0x0000006440007bc4UL, 0x0080016100000000UL,
  0x0800000268007c00UL, 0x0000006468000424UL, 0x68007c0000000000UL, 0x68007bc448000000UL,
  0x0000000000000064UL, 0x18007c00008002a1UL, 0x1800042400000002UL, 0x0000000000000064UL,
  0x4000000018007c00UL, 0x0000006418007bc4UL, 0x0080002100000000UL, 0x0000000220007c00UL,
  0x0000006420000424UL, 0x20007c0000000000UL, 0x20007bc440000000UL, 0x0000000000000064UL,
  0x2c007c0000800061UL, 0x2c00042400000002UL, 0x0000000000000064UL, 0x400000002c007c00UL,
  0x000000642c007bc4UL, 0x008000c100000000UL, 0x000000000000000cUL
};

#define _ec_blob_network_1_address _ec_blob_network_1

ECBLOB_CONST_SECTION
// aligned to the cache line size (equal to 64 bytes)
__attribute__((aligned(64)))
static const uint64_t _ec_blob_network_13[400] =
{
  0x0000031cca057a7aUL, 0x00802241000001bdUL, 0x080000005c000042UL, 0x5c027c0015000060UL,
  0x5c07004300080000UL, 0x0000ffb86c226d1bUL, 0x000000005c0c0043UL, 0x0080218110411041UL,
  0x0000005444007c00UL, 0x04080303440200e3UL, 0x10b7400100001155UL, 0x027f000000500280UL,
  0x00030008004f0000UL, 0x00000000440a7c00UL, 0x00ffff85440c0043UL, 0x008021a100000000UL,
  0x0000004048007c00UL, 0x04080303480200e3UL, 0x10a3410000001155UL, 0x027f000000500280UL,
  0x00070408004f0000UL, 0x00000000480a7c00UL, 0x00ffff85480c0043UL, 0x0080226100000000UL,
  0x0800000060000042UL, 0x60020123156000fcUL, 0x00000000000a8000UL, 0x000063ff00000003UL,
  0x00004b1100018fffUL, 0x07c403fd00000000UL, 0x600c004300000001UL, 0x2042204200000000UL,
  0x00000001600b7c00UL, 0x029d4b1161000403UL, 0x026a4b1100003bbcUL, 0x035f4b110000814bUL,
  0x02084b110000597cUL, 0x02ac4b110000209dUL, 0x02ae4b110000301aUL, 0xfeab4b1100001809UL,
  0x01534b11000010ffUL, 0x00a24b1100007fe5UL, 0x04324b1100003e6eUL, 0x01c14b110000538eUL,
  0x014a4b110000e648UL, 0x03294b1100008e61UL, 0x000c4b1100003fccUL, 0x01484b110000fdc9UL,
  0x04d04b1100001051UL, 0x0080220100003aa8UL, 0x0174104c54007c00UL, 0x00087f8054020043UL,
  0x550002030210220fUL, 0x0000000100000000UL, 0x0000000300000002UL, 0x0000000500000004UL,
  0x0000000700000006UL, 0x0000000a00000048UL, 0x0000000c0000000bUL, 0x0000000e0000000dUL,
  0x000000d7000000cfUL, 0x00000000560007c3UL, 0x000000000000c180UL, 0x000000000000c180UL,
  0x000000000000c180UL, 0x000000000000c180UL, 0x000000000000c180UL, 0x000000000000c180UL,
  0xfaf2ffd30000c180UL, 0x000000000000c0a1UL, 0x0555071c0000c080UL, 0x5733feef0000bddcUL,
  0x455500000000b1d4UL, 0x455500000000b68bUL, 0x5eb8ff450000b68bUL, 0x455500000000a8c7UL,
  0x400000000000b675UL, 0x400000000000be80UL, 0x400000000000be80UL, 0x400000000000bf00UL,
  0x400000000000bf00UL, 0x400000000000bf00UL, 0x400000000000bf80UL, 0x400000000000bf80UL,
  0x600000000000bf80UL, 0x4000000000008780UL, 0x400000000000c000UL, 0x600000000000c000UL,
  0x4000000000008500UL, 0x400000000000c080UL, 0x600000000000c080UL, 0x2000000000008280UL,
  0x0080206100000000UL, 0x0008010420007c00UL, 0x3420000020020043UL, 0x200500c300019000UL,
  0x0001900000000000UL, 0x0000000000000000UL, 0x0010000000000024UL, 0x00000006200c0042UL,
  0x200d004300000007UL, 0x3421903f00000001UL, 0x0000000020110043UL, 0x0080208100000000UL,
  0x0008c00024007c00UL, 0x3420000024020123UL, 0x0010000800500050UL, 0x0000001000000500UL,
  0x0000000000000001UL, 0x0010000000000024UL, 0x00000006240c0042UL, 0x240d004300000007UL,
  0x3421903f00000004UL, 0x0000000024110043UL, 0x0080202100000000UL, 0x0008c18418007c00UL,
  0x704e4e1018020043UL, 0x180500c300000900UL, 0x0000000000000000UL, 0x0000000000000000UL,
  0x0010000000000024UL, 0x00000006180c0042UL, 0x180d004300000007UL, 0x704e574f00000001UL,
  0x0000000018110043UL, 0x0080212100000008UL, 0x0008c00038007c00UL, 0x3420000838020123UL,
  0x0010000800500050UL, 0x0000001000000500UL, 0x0000000000000001UL, 0x0010000000000024UL,
  0x00000006380c0042UL, 0x380d004300000007UL, 0x3421903f00000004UL, 0x0000000038110043UL,
  0x008020a100000000UL, 0x0008010c28007c00UL, 0x3411900028020043UL, 0x280500c300019000UL,
  0x0001900000000000UL, 0x0000000000000000UL, 0x0010000000000024UL, 0x00000006280c0042UL,
  0x280d004300000007UL, 0x3413203f00000001UL, 0x0000000028110043UL, 0x008020c100000000UL,
  0x000800082c007c00UL, 0x342700002c020123UL, 0x0010000400500050UL, 0x0000000400000500UL,
  0x0001900000000004UL, 0x0010000000000024UL, 0x000000062c0c0042UL, 0x2c0d004300000007UL,
  0x3428903f00000004UL, 0x000000002c110043UL, 0x1007004300000000UL, 0x0000002100000025UL,
  0x0000000910120043UL, 0x1015006300000003UL, 0x0000000300000013UL, 0x101c7c0000000019UL,
  0x101e7c0000000027UL, 0x10207c0000000007UL, 0x10007c000000001bUL, 0x2800200100000001UL,
  0x44007c002c002001UL, 0x48007c0000000055UL, 0x5400200100000041UL, 0x600020015c002001UL,
  0x2000200118002001UL, 0x3800200124002001UL, 0x0000006428007fe4UL, 0x2c007fe400000000UL,
  0x0000000000000064UL, 0x0000000210007c00UL, 0x0000006410000424UL, 0x10007c0000000000UL,
  0x10007bc440000000UL, 0x0000000000000064UL, 0x0000000010070043UL, 0x1012004300000000UL,
  0x0000000000000000UL, 0x0000000010150063UL, 0x0000000000000000UL, 0x00000000101c7c00UL,
  0x00000000101e7c00UL, 0x0000000010207c00UL, 0x0000000228007c00UL, 0x0000006428000424UL,
  0x28007c0000000000UL, 0x28007bc440000000UL, 0x0000000000000064UL, 0x2c007c00008000a1UL,
  0x2c00042400000002UL, 0x0000000000000064UL, 0x400000002c007c00UL, 0x000000642c007bc4UL,
  0x008000c100000000UL, 0x0000000244007c00UL, 0x0000006444000424UL, 0x44007c0000000000UL,
  0x44007bc440000000UL, 0x0000000000000064UL, 0x48007c0000800181UL, 0x4800042400000002UL,
  0x0000000000000064UL, 0x4000000048007c00UL, 0x0000006448007bc4UL, 0x008001a100000000UL,
  0x0088108254007c00UL, 0x0000006454000424UL, 0x54007c0000000000UL, 0x54007bc440881080UL,
  0x0000000000000064UL, 0x5c007c0000800201UL, 0x5c00042408000002UL, 0x0000000000000064UL,
  0x480000005c007c00UL, 0x000000645c007bc4UL, 0x0080024100000000UL, 0x0800000260007c00UL,
  0x0000006460000424UL, 0x60007c0000000000UL, 0x60007bc448000000UL, 0x0000000000000064UL,
  0x18007c0000800261UL, 0x1800042400000002UL, 0x0000000000000064UL, 0x4000000018007c00UL,
  0x0000006418007bc4UL, 0x0080002100000000UL, 0x0000000220007c00UL, 0x0000006420000424UL,
  0x20007c0000000000UL, 0x20007bc440000000UL, 0x0000000000000064UL, 0x24007c0000800061UL,
  0x2400042400000002UL, 0x0000000000000064UL, 0x4000000024007c00UL, 0x0000006424007bc4UL,
  0x0080008100000000UL, 0x0000000238007c00UL, 0x0000006438000424UL, 0x38007c0000000000UL,
  0x38007bc440000000UL, 0x0000000000000064UL, 0x000001dd00800121UL, 0x3c007c0000802141UL,
  0x3c0200e300000054UL, 0x0000115504080303UL, 0x0050028010b74002UL, 0x004f0000027f0000UL,
  0x3c0a7c0000030008UL, 0x3c0c004300000000UL, 0x0000000000ffff83UL, 0x40007c0000802161UL,
  0x400200e300000040UL, 0x0000115504080303UL, 0x0050028010a34200UL, 0x004f0000027f0000UL,
  0x400a7c0000070408UL, 0x400c004300000000UL, 0x0000000000ffff83UL, 0x6400004200802281UL,
  0x156000fc08000000UL, 0x000a800064020123UL, 0x0000000300000000UL, 0x00018fff000063ffUL,
  0x000000000000659eUL, 0x0000000107c403fdUL, 0x00000000640c0043UL, 0x640b7c0020422042UL,
  0x6500040300000001UL, 0x0000d2b10154659eUL, 0x000044bd021e659eUL, 0x0000932701f6659eUL,
  0x0000e986ff42659eUL, 0x00008d6900a8659eUL, 0x00008e99feae659eUL, 0x0000c1270287659eUL,
  0x0000914000b3659eUL, 0x00001b6bfe9b659eUL, 0x0000396aff68659eUL, 0x000023c5ff80659eUL,
  0x0000894eff8d659eUL, 0x0000f39d0184659eUL, 0x000052c300ac659eUL, 0x000032ceffe0659eUL,
  0x0000236a022f659eUL, 0x2c007c00008020c1UL, 0x2c0201230008c000UL, 0x0050005034270000UL,
  0x0000050000100008UL, 0x0000000100000010UL, 0x0000002400000000UL, 0x2c0c004200100000UL,
  0x0000000700000006UL, 0x000000042c0d0043UL, 0x2c1100433428903fUL, 0x0000000000000000UL,
  0x34007c0000802101UL, 0x340200430008c184UL, 0x00000900704e5710UL, 0x00000000340500c3UL,
  0x0000000000000000UL, 0x0000002400000000UL, 0x340c004200100000UL, 0x0000000700000006UL,
  0x00000001340d0043UL, 0x34110043704e604fUL, 0x0000000800000000UL, 0x18007c0000802021UL,
  0x180201230008c000UL, 0x0050005034270008UL, 0x0000050000100008UL, 0x0000000100000010UL,
  0x0000002400000000UL, 0x180c004200100000UL, 0x0000000700000006UL, 0x00000004180d0043UL,
  0x181100433428903fUL, 0x0000000000000000UL, 0x1c007c0000802041UL, 0x1c02012300080008UL,
  0x0050005034200000UL, 0x0000050000100004UL, 0x0000000400000004UL, 0x0000002400019000UL,
  0x1c0c004200100000UL, 0x0000000700000006UL, 0x000000041c0d0043UL, 0x1c1100433421903fUL,
  0x0000000000000000UL, 0x0000002910047c00UL, 0x0000000d100c0043UL, 0x100f006300000011UL,
  0x0000001100000003UL, 0x10227c0000000015UL, 0x10007c0000000017UL, 0x1c00200100000001UL,
  0x000000553c007c00UL, 0x0000004140007c00UL, 0x1800200164002001UL, 0x340020012c002001UL,
  0x000000641c007fe4UL, 0x10007c0000000000UL, 0x1000042400000002UL, 0x0000000000000064UL,
  0x4000000010007c00UL, 0x0000006410007bc4UL, 0x10047c0000000000UL, 0x100c004300000000UL,
  0x0000000000000000UL, 0x00000000100f0063UL, 0x0000000000000000UL, 0x0000000010227c00UL,
  0x000000021c007c00UL, 0x000000641c000424UL, 0x1c007c0000000000UL, 0x1c007bc440000000UL,
  0x0000000000000064UL, 0x3c007c0000800041UL, 0x3c00042400000002UL, 0x0000000000000064UL,
  0x400000003c007c00UL, 0x000000643c007bc4UL, 0x0080014100000000UL, 0x0000000240007c00UL,
  0x0000006440000424UL, 0x40007c0000000000UL, 0x40007bc440000000UL, 0x0000000000000064UL,
  0x64007c0000800161UL, 0x6400042408000002UL, 0x0000000000000064UL, 0x4800000064007c00UL,
  0x0000006464007bc4UL, 0x0080028100000000UL, 0x0000000218007c00UL, 0x0000006418000424UL,
  0x18007c0000000000UL, 0x18007bc440000000UL, 0x0000000000000064UL, 0x2c007c0000800021UL,
  0x2c00042400000002UL, 0x0000000000000064UL, 0x400000002c007c00UL, 0x000000642c007bc4UL,
  0x008000c100000000UL, 0x0000000234007c00UL, 0x0000006434000424UL, 0x34007c0000000000UL,
  0x34007bc440000000UL, 0x0000000000000064UL, 0x0000000c00800101UL
};

#define _ec_blob_network_13_address _ec_blob_network_13

ECBLOB_CONST_SECTION
// aligned to the cache line size (equal to 64 bytes)
__attribute__((aligned(64)))
static const uint64_t _ec_blob_network_21[872] =
{
  0x000006bfca057a7aUL, 0x00802121000002bdUL, 0x0088010038007c00UL, 0x3410000038020043UL,
  0x380500c30000c800UL, 0x0001900000000000UL, 0x0000000000000000UL, 0x0010000000000024UL,
  0x00000006380c0042UL, 0x380d004300000007UL, 0x3414b03f00000003UL, 0x0000000038110043UL,
  0x0080200100000000UL, 0x0088000814007c00UL, 0x342e000014020123UL, 0x0030000800500050UL,
  0x0000001000000f00UL, 0x0004b00000000003UL, 0x0010000000000024UL, 0x00000006140c0042UL,
  0x140d004300000007UL, 0x3432b03f00000003UL, 0x0000000014110043UL, 0x10027c0000000000UL,
  0x10007c0000000013UL, 0x1400200100000001UL, 0x14007fe438002001UL, 0x0000000000000064UL,
  0x0000000210007c00UL, 0x0000006410000424UL, 0x10007c0000000000UL, 0x10007bc440000000UL,
  0x0000000000000064UL, 0x0000000010027c00UL, 0x0000000214007c00UL, 0x0000006414000424UL,
  0x14007c0000000000UL, 0x14007bc440000000UL, 0x0000000000000064UL, 0x38007c0000800001UL,
  0x3800042400000002UL, 0x0000000000000064UL, 0x4000000038007c00UL, 0x0000006438007bc4UL,
  0x0080012100000000UL, 0x00802181000002ddUL, 0x0000005444007c00UL, 0x10180101440200e3UL,
  0x10b7400100001100UL, 0x077f000000500780UL, 0x000f0020004f0000UL, 0x00000000440a7c00UL,
  0x00ffff84440c0043UL, 0x008021a100000000UL, 0x0000004048007c00UL, 0x10180101480200e3UL,
  0x10a3410000001100UL, 0x077f000000500780UL, 0x001f1020004f0000UL, 0x00000000480a7c00UL,
  0x00ffff84480c0043UL, 0x008022a100000000UL, 0x0800000068000042UL, 0x68020123156000fcUL,
  0x00000000000a0000UL, 0x00018fff0000000fUL, 0x0000411b00031fffUL, 0x078403f100000000UL,
  0x680c004300000001UL, 0x2042204200000000UL, 0x00000001680b7c00UL, 0x0285411b69000803UL,
  0x0335411b00002d1aUL, 0x03c8411b0000ee7aUL, 0x026d411b0000ee53UL, 0x03c2411b0000247eUL,
  0x033b411b0000f44fUL, 0x03bb411b0000252bUL, 0x03c7411b0000f5deUL, 0x0367411b0000a8caUL,
  0x02e2411b000065caUL, 0x0336411b00008360UL, 0x02c5411b00002f94UL, 0x041f411b000002f6UL,
  0x0387411b000066b4UL, 0x031b411b00003029UL, 0x02f4411b00009be6UL, 0x02be411b000050deUL,
  0x0299411b0000c7d8UL, 0x02a1411b00002401UL, 0x02df411b0000c9a5UL, 0x0396411b0000558aUL,
  0x0271411b00005208UL, 0x02b7411b0000b86bUL, 0x0395411b0000472fUL, 0x0297411b0000cfd1UL,
  0x0307411b0000bdeaUL, 0x01f1411b0000a500UL, 0x0248411b0000ab0aUL, 0x02b1411b0000a5a3UL,
  0x0251411b00006db9UL, 0x0251411b0000ee0bUL, 0x0211411b00002ab9UL, 0x008022210000344fUL,
  0x0174104c58007c00UL, 0x00087f8058020043UL, 0x590002030210320fUL, 0x0000000100000000UL,
  0x0000000300000002UL, 0x0000000500000004UL, 0x0000000700000006UL, 0x000000c900000008UL,
  0x0000005300000051UL, 0x0000001600000015UL, 0x000000d800000017UL, 0x000000005a000803UL,
  0x000000000000c280UL, 0x000000000000c280UL, 0x000000000000c280UL, 0x000000000000c280UL,
  0x000000000000c280UL, 0x000000000000c280UL, 0xfb80fe000000c280UL, 0xff4aff0d0000c20fUL,
  0x000000000000c235UL, 0x000000000000c100UL, 0x000000000000c080UL, 0x000000000000c080UL,
  0x000000000000c000UL, 0x000000000000c000UL, 0x000000000000c000UL, 0x000000000000c000UL,
  0xa19a0ccd0000c000UL, 0xdd55071c0000ebdaUL, 0x300000000000c4b2UL, 0x01c702d800008880UL,
  0x2ccd00000000b6b9UL, 0x2c00000000008e80UL, 0x1eab008200009070UL, 0x200000000000a62cUL,
  0x300000000000ba80UL, 0x3000000000008200UL, 0x3000000000008180UL, 0x3000000000008180UL,
  0x3000000000008100UL, 0x3000000000008100UL, 0x2000000000008080UL, 0x008020e10000bf80UL,
  0x0008c00030007c00UL, 0x342e000030020123UL, 0x0030001800500050UL, 0x0000003000000f00UL,
  0x0000000000000001UL, 0x0010000000000024UL, 0x00000006300c0042UL, 0x300d004300000007UL,
  0x3432b03f00000002UL, 0x0000000030110043UL, 0x0080202100000000UL, 0x0008c18418007c00UL,
  0x704e601018020043UL, 0x180500c300000600UL, 0x0000000000000000UL, 0x0000000000000000UL,
  0x0010000000000024UL, 0x00000006180c0042UL, 0x180d004300000007UL, 0x704e664f00000001UL,
  0x0000000018110043UL, 0x0080208100000008UL, 0x0008c00024007c00UL, 0x342e001824020123UL,
  0x0030001800500050UL, 0x0000003000000f00UL, 0x0000000000000001UL, 0x0010000000000024UL,
  0x00000006240c0042UL, 0x240d004300000007UL, 0x3432b03f00000002UL, 0x0000000024110043UL,
  0x0080210100000000UL, 0x0008000834007c00UL, 0x3427000034020123UL, 0x0020001000500050UL,
  0x0000001000000a00UL, 0x0003200000000002UL, 0x0010000000000024UL, 0x00000006340c0042UL,
  0x340d004300000007UL, 0x342a203f00000002UL, 0x0000000034110043UL, 0x100a7c0000000000UL,
  0x1012004300000023UL, 0x000000030000000fUL, 0x0000000910150063UL, 0x0000001900000003UL,
  0x0000002b101d7c00UL, 0x0000001b10247c00UL, 0x0000000110007c00UL, 0x44007c0034002001UL,
  0x48007c0000000055UL, 0x5800200100000041UL, 0x1800200168002001UL, 0x3000200124002001UL,
  0x0000006434007fe4UL, 0x10007c0000000000UL, 0x1000042400000002UL, 0x0000000000000064UL,
  0x4000000010007c00UL, 0x0000006410007bc4UL, 0x100a7c0000000000UL, 0x1012004300000000UL,
  0x0000000000000000UL, 0x0000000010150063UL, 0x0000000000000000UL, 0x00000000101d7c00UL,
  0x0000000010247c00UL, 0x0000000234007c00UL, 0x0000006434000424UL, 0x34007c0000000000UL,
  0x34007bc440000000UL, 0x0000000000000064UL, 0x44007c0000800101UL, 0x4400042400000002UL,
  0x0000000000000064UL, 0x4000000044007c00UL, 0x0000006444007bc4UL, 0x0080018100000000UL,
  0x0000000248007c00UL, 0x0000006448000424UL, 0x48007c0000000000UL, 0x48007bc440000000UL,
  0x0000000000000064UL, 0x58007c00008001a1UL, 0x5800042400881082UL, 0x0000000000000064UL,
  0x4088108058007c00UL, 0x0000006458007bc4UL, 0x0080022100000000UL, 0x0800000268007c00UL,
  0x0000006468000424UL, 0x68007c0000000000UL, 0x68007bc448000000UL, 0x0000000000000064UL,
  0x18007c00008002a1UL, 0x1800042400000002UL, 0x0000000000000064UL, 0x4000000018007c00UL,
  0x0000006418007bc4UL, 0x0080002100000000UL, 0x0000000224007c00UL, 0x0000006424000424UL,
  0x24007c0000000000UL, 0x24007bc440000000UL, 0x0000000000000064UL, 0x30007c0000800081UL,
  0x3000042400000002UL, 0x0000000000000064UL, 0x4000000030007c00UL, 0x0000006430007bc4UL,
  0x008000e100000000UL, 0x00802141000002fdUL, 0x000000543c007c00UL, 0x040803033c0200e3UL,
  0x10b7400300002211UL, 0x027f000000500280UL, 0x00030010004f0000UL, 0x000000003c0a7c00UL,
  0x00ffff853c0c0043UL, 0x0080216100000000UL, 0x0000004040007c00UL, 0x04080303400200e3UL,
  0x10b7400000002211UL, 0x027f000000500280UL, 0x00070410004f0000UL, 0x00000000400a7c00UL,
  0x00ffff85400c0043UL, 0x0080218100000000UL, 0x0000004044007c00UL, 0x04080303440200e3UL,
  0x10b7400000002211UL, 0x027f000000500280UL, 0x000b0810004f0000UL, 0x00000000440a7c00UL,
  0x00ffff85440c0043UL, 0x008021a100000000UL, 0x0000004048007c00UL, 0x04080303480200e3UL,
  0x10a3430000002211UL, 0x027f000000500280UL, 0x000f0c10004f0000UL, 0x00000000480a7c00UL,
  0x00ffff85480c0043UL, 0x0080224100000000UL, 0x080000005c000042UL, 0x5c020123156000fcUL,
  0x00000000000a0000UL, 0x000018ff00000003UL, 0x00004af100018fffUL, 0x070403fd00000000UL,
  0x5c0c004300000001UL, 0x2042204200000000UL, 0x000000015c0b7c00UL, 0x01a04af15d001003UL,
  0x020b4af100000405UL, 0x03d84af10000bde8UL, 0x01e64af10000365fUL, 0x009c4af1000032dcUL,
  0x01fe4af1000036dcUL, 0x00d14af100000519UL, 0x00924af10000874aUL, 0xfe584af10000b350UL,
  0x03314af10000c8b0UL, 0x00e44af100008977UL, 0x00454af10000b3daUL, 0x00104af1000016dfUL,
  0x00bf4af10000df78UL, 0x015a4af10000322dUL, 0x008b4af10000a344UL, 0x020a4af10000203eUL,
  0x00b34af100005093UL, 0x008a4af10000607bUL, 0x032d4af10000f168UL, 0xff114af100001bffUL,
  0x01054af100007666UL, 0x01364af100000cb6UL, 0x01fe4af10000ab06UL, 0x01eb4af10000d32fUL,
  0x01804af100006e69UL, 0x01384af10000b174UL, 0x02b24af100005090UL, 0x017a4af100004eb5UL,
  0x01fd4af100008bb7UL, 0x01554af10000e8feUL, 0x01654af100008d2fUL, 0x00634af100004934UL,
  0x04564af10000889fUL, 0x01174af10000b5c5UL, 0x01e84af10000d23cUL, 0x01a54af1000019f9UL,
  0x00a24af10000faecUL, 0x016a4af10000cd02UL, 0x03e54af10000aa39UL, 0x01094af10000b6f9UL,
  0x015c4af100009648UL, 0x02664af100002355UL, 0x01334af100009961UL, 0x000b4af10000d05cUL,
  0x03eb4af10000e57dUL, 0x02b64af10000dcb5UL, 0x00c04af100003908UL, 0x034a4af1000025bcUL,
  0x00644af100006b5cUL, 0x01154af10000313cUL, 0x01db4af10000a98dUL, 0x01324af1000041fcUL,
  0x023f4af100009b3cUL, 0x00fc4af1000068cdUL, 0xffa74af10000c7a9UL, 0x01524af100003b88UL,
  0x03a94af1000054d8UL, 0x00c94af1000072b8UL, 0x02744af10000d81eUL, 0x01dc4af1000077a7UL,
  0x00ef4af10000b8afUL, 0x014d4af1000075e5UL, 0x02694af100006d9aUL, 0x0080220100006aacUL,
  0x0174104c54007c00UL, 0x00087f8054020043UL, 0x550002030210220fUL, 0x0000000100000000UL,
  0x0000000300000002UL, 0x000000c500000004UL, 0x0000000f0000004dUL, 0x00000018000000d0UL,
  0x000000db00000059UL, 0x000000e400000023UL, 0x000000ed0000002cUL, 0x0000000056000d43UL,
  0x000000000000c480UL, 0x000000000000c480UL, 0xac00fdb70000c480UL, 0x0000000000009475UL,
  0xe00000000000c400UL, 0x000000000000ac00UL, 0x000000000000c380UL, 0x000000000000c380UL,
  0x000000000000c380UL, 0x000000000000c380UL, 0x000000000000c300UL, 0x000000000000c300UL,
  0xfaab00000000c300UL, 0xf80000000000c020UL, 0xfaab00000000bf30UL, 0x000000000000bfcbUL,
  0x000000000000c000UL, 0x000000000000c080UL, 0x000000000000c080UL, 0x000000000000c100UL,
  0x000000000000c180UL, 0x200000000000c200UL, 0x200000000000bc80UL, 0x060004000000bc80UL,
  0x4aab00000000bef2UL, 0x1e6602220000ac80UL, 0x400000000000bad7UL, 0x400000000000b500UL,
  0x600000000000b580UL, 0x6000000000009b80UL, 0x6000000000009b00UL, 0x4000000000009a80UL,
  0x400000000000b700UL, 0x400000000000b780UL, 0x5e22ff770000b800UL, 0x400000000000a29aUL,
  0x400000000000bb00UL, 0x400000000000bb80UL, 0x400000000000bb80UL, 0x600000000000bc00UL,
  0x4000000000009000UL, 0x600000000000bc80UL, 0x4000000000008e80UL, 0x6c44ff4a0000bd00UL,
  0x6000000000009468UL, 0x4000000000008700UL, 0x600000000000bf80UL, 0x4000000000008580UL,
  0x600000000000c000UL, 0x4000000000008400UL, 0x600000000000c080UL, 0x2000000000008280UL,
  0x0080202100000000UL, 0x0008c00018007c00UL, 0x3427000018020123UL, 0x0020000800500050UL,
  0x0000002000000a00UL, 0x0000000000000001UL, 0x0010000000000024UL, 0x00000006180c0042UL,
  0x180d004300000007UL, 0x342a203f00000010UL, 0x0000000018110043UL, 0x0080212100000000UL,
  0x0008c18438007c00UL, 0x704b900038020043UL, 0x380500c300004800UL, 0x0000000000000000UL,
  0x0000000000000000UL, 0x0010000000000024UL, 0x00000006380c0042UL, 0x380d004300000007UL,
  0x704bd83f00000001UL, 0x0000000038110043UL, 0x008020e100000008UL, 0x0008c00030007c00UL,
  0x3427000830020123UL, 0x0020000800500050UL, 0x0000002000000a00UL, 0x0000000000000001UL,
  0x0010000000000024UL, 0x00000006300c0042UL, 0x300d004300000007UL, 0x342a203f00000010UL,
  0x0000000030110043UL, 0x0080210100000000UL, 0x0008c00034007c00UL, 0x3427001034020123UL,
  0x0020000800500050UL, 0x0000002000000a00UL, 0x0000000000000001UL, 0x0010000000000024UL,
  0x00000006340c0042UL, 0x340d004300000007UL, 0x342a203f00000010UL, 0x0000000034110043UL,
  0x0080206100000000UL, 0x0008c00020007c00UL, 0x3427001820020123UL, 0x0020000800500050UL,
  0x0000002000000a00UL, 0x0000000000000001UL, 0x0010000000000024UL, 0x00000006200c0042UL,
  0x200d004300000007UL, 0x342a203f00000010UL, 0x0000000020110043UL, 0x0080204100000000UL,
  0x000800081c007c00UL, 0x342e00001c020123UL, 0x0040000400280028UL, 0x0000000400000a00UL,
  0x0001900000000010UL, 0x0010000000000024UL, 0x000000061c0c0042UL, 0x1c0d004300000007UL,
  0x342f903f00000010UL, 0x000000001c110043UL, 0x10047c0000000000UL, 0x100c004300000021UL,
  0x0000001300000003UL, 0x0000000f100f0123UL, 0x0000001500000013UL, 0x0000001300000011UL,
  0x0000000700000017UL, 0x0000001900000013UL, 0x00000025101c7c00UL, 0x0000001b101e7c00UL,
  0x0000000110007c00UL, 0x3c007c001c002001UL, 0x40007c0000000055UL, 0x44007c0000000041UL,
  0x48007c0000000041UL, 0x5400200100000041UL, 0x180020015c002001UL, 0x3000200120002001UL,
  0x3800200134002001UL, 0x000000641c007fe4UL, 0x10007c0000000000UL, 0x1000042400000002UL,
  0x0000000000000064UL, 0x4000000010007c00UL, 0x0000006410007bc4UL, 0x10047c0000000000UL,
  0x100c004300000000UL, 0x0000000000000000UL, 0x00000000100f0123UL, 0x0000000000000000UL,
  0x0000000000000000UL, 0x0000000000000000UL, 0x0000000000000000UL, 0x00000000101c7c00UL,
  0x00000000101e7c00UL, 0x000000021c007c00UL, 0x000000641c000424UL, 0x1c007c0000000000UL,
  0x1c007bc440000000UL, 0x0000000000000064UL, 0x3c007c0000800041UL, 0x3c00042400000002UL,
  0x0000000000000064UL, 0x400000003c007c00UL, 0x000000643c007bc4UL, 0x0080014100000000UL,
  0x0000000240007c00UL, 0x0000006440000424UL, 0x40007c0000000000UL, 0x40007bc440000000UL,
  0x0000000000000064UL, 0x44007c0000800161UL, 0x4400042400000002UL, 0x0000000000000064UL,
  0x4000000044007c00UL, 0x0000006444007bc4UL, 0x0080018100000000UL, 0x0000000248007c00UL,
  0x0000006448000424UL, 0x48007c0000000000UL, 0x48007bc440000000UL, 0x0000000000000064UL,
  0x54007c00008001a1UL, 0x5400042400881082UL, 0x0000000000000064UL, 0x4088108054007c00UL,
  0x0000006454007bc4UL, 0x0080020100000000UL, 0x080000025c007c00UL, 0x000000645c000424UL,
  0x5c007c0000000000UL, 0x5c007bc448000000UL, 0x0000000000000064UL, 0x18007c0000800241UL,
  0x1800042400000002UL, 0x0000000000000064UL, 0x4000000018007c00UL, 0x0000006418007bc4UL,
  0x0080002100000000UL, 0x0000000220007c00UL, 0x0000006420000424UL, 0x20007c0000000000UL,
  0x20007bc440000000UL, 0x0000000000000064UL, 0x30007c0000800061UL, 0x3000042400000002UL,
  0x0000000000000064UL, 0x4000000030007c00UL, 0x0000006430007bc4UL, 0x008000e100000000UL,
  0x0000000234007c00UL, 0x0000006434000424UL, 0x34007c0000000000UL, 0x34007bc440000000UL,
  0x0000000000000064UL, 0x38007c0000800101UL, 0x3800042400000002UL, 0x0000000000000064UL,
  0x4000000038007c00UL, 0x0000006438007bc4UL, 0x0080012100000000UL, 0x008021410000031dUL,
  0x000000543c007c00UL, 0x101001013c0200e3UL, 0x10b7400200001100UL, 0x027f000000280280UL,
  0x000f004000270000UL, 0x000000003c0a7c00UL, 0x00ffff893c0c0043UL, 0x0080216100000000UL,
  0x0000004040007c00UL, 0x10100101400200e3UL, 0x10b7400000001100UL, 0x027f000000280280UL,
  0x001f104000270000UL, 0x00000000400a7c00UL, 0x00ffff89400c0043UL, 0x0080218100000000UL,
  0x0000004044007c00UL, 0x10100101440200e3UL, 0x10b7400000001100UL, 0x027f000000280280UL,
  0x002f204000270000UL, 0x00000000440a7c00UL, 0x00ffff89440c0043UL, 0x008021a100000000UL,
  0x0000004048007c00UL, 0x10100101480200e3UL, 0x10a3420000001100UL, 0x027f000000280280UL,
  0x003f304000270000UL, 0x00000000480a7c00UL, 0x00ffff89480c0043UL, 0x0080226100000000UL,
  0x0800000060000042UL, 0x60020123156000fcUL, 0x00000000000a0000UL, 0x000063ff0000000fUL,
  0x00005e5e00018fffUL, 0x070403f100000000UL, 0x600c004300000001UL, 0x2042204200000000UL,
  0x00000001600b7c00UL, 0x019c5e5e61001003UL, 0x01b65e5e00001e70UL, 0x03bf5e5e00007990UL,
  0x01205e5e00002497UL, 0x03b45e5e0000b9a5UL, 0xff8e5e5e00007401UL, 0x016c5e5e00004a4bUL,
  0x00b15e5e00001b5bUL, 0x00c75e5e00003821UL, 0x00b65e5e00003e76UL, 0x013a5e5e0000eeccUL,
  0x00ad5e5e00008738UL, 0xfff75e5e000041b4UL, 0x00c25e5e00009f30UL, 0x020b5e5e00001558UL,
  0xffb25e5e00004196UL, 0x003c5e5e0000b0dfUL, 0x001e5e5e000075e9UL, 0x01eb5e5e0000e118UL,
  0xfe135e5e00007694UL, 0xff3f5e5e0000ffdfUL, 0x03f95e5e000009bdUL, 0xffd85e5e0000c0afUL,
  0x040a5e5e00001af3UL, 0xffdb5e5e000027f0UL, 0x026b5e5e0000b303UL, 0x02825e5e000076f0UL,
  0xff175e5e00003a00UL, 0xfe8a5e5e0000df6cUL, 0x01725e5e0000b182UL, 0x04af5e5e0000a657UL,
  0xfe5d5e5e00009261UL, 0x03e65e5e0000e81eUL, 0x027a5e5e0000ad47UL, 0x021b5e5e0000358dUL,
  0x02015e5e0000a8d8UL, 0x02a95e5e00007ce8UL, 0x02015e5e0000ab17UL, 0x02025e5e0000c3aeUL,
  0x03005e5e000039a3UL, 0x02625e5e00001bc2UL, 0x02295e5e0000e4f2UL, 0x023f5e5e0000f180UL,
  0x01aa5e5e0000f7d4UL, 0x014e5e5e0000addfUL, 0x02c05e5e00003fc3UL, 0x021a5e5e0000568eUL,
  0x030d5e5e00000033UL, 0x028c5e5e00001a24UL, 0x01e05e5e0000bb69UL, 0x01535e5e00000941UL,
  0x00975e5e000068e1UL, 0x01e55e5e00003b60UL, 0x004a5e5e0000a853UL, 0xfff95e5e0000a6faUL,
  0x00145e5e0000a632UL, 0x02895e5e00008eddUL, 0x020b5e5e0000b0e6UL, 0x02935e5e000029ffUL,
  0x01c85e5e00002eceUL, 0x03145e5e00008976UL, 0x01105e5e00001b13UL, 0x02905e5e00002334UL,
  0x01095e5e0000b1d7UL, 0x0080212100005172UL, 0x0008c00038007c00UL, 0x342e000038020123UL,
  0x0040001000280028UL, 0x0000004000000a00UL, 0x0000000000000001UL, 0x0010000000000024UL,
  0x00000006380c0042UL, 0x380d004300000007UL, 0x342f903f00000004UL, 0x0000000038110043UL,
  0x0080200100000000UL, 0x0008c18414007c00UL, 0x704e0e1014020043UL, 0x140500c300001000UL,
  0x0000000000000000UL, 0x0000000000000000UL, 0x0010000000000024UL, 0x00000006140c0042UL,
  0x140d004300000007UL, 0x704e1e4f00000001UL, 0x0000000014110043UL, 0x0080208100000008UL,
  0x0008c00024007c00UL, 0x342e001024020123UL, 0x0040001000280028UL, 0x0000004000000a00UL,
  0x0000000000000001UL, 0x0010000000000024UL, 0x00000006240c0042UL, 0x240d004300000007UL,
  0x342f903f00000004UL, 0x0000000024110043UL, 0x0080204100000000UL, 0x0008c0001c007c00UL,
  0x342e00201c020123UL, 0x0040001000280028UL, 0x0000004000000a00UL, 0x0000000000000001UL,
  0x0010000000000024UL, 0x000000061c0c0042UL, 0x1c0d004300000007UL, 0x342f903f00000004UL,
  0x000000001c110043UL, 0x008020a100000000UL, 0x0008c00028007c00UL, 0x342e003028020123UL,
  0x0040001000280028UL, 0x0000004000000a00UL, 0x0000000000000001UL, 0x0010000000000024UL,
  0x00000006280c0042UL, 0x280d004300000007UL, 0x342f903f00000004UL, 0x0000000028110043UL,
  0x0080210100000000UL, 0x0008000834007c00UL, 0x3427000034020123UL, 0x0040001000280028UL,
  0x0000001000000a00UL, 0x0001900000000004UL, 0x0010000000000024UL, 0x00000006340c0042UL,
  0x340d004300000007UL, 0x3428903f00000004UL, 0x0000000034110043UL, 0x100a7c0000000000UL,
  0x100c004300000027UL, 0x0000000100000013UL, 0x00000009100f0123UL, 0x0000001500000001UL,
  0x0000000100000005UL, 0x0000000b00000017UL, 0x0000001900000001UL, 0x0000001b10207c00UL,
  0x0000000110007c00UL, 0x3c007c0034002001UL, 0x40007c0000000055UL, 0x44007c0000000041UL,
  0x48007c0000000041UL, 0x6000200100000041UL, 0x1c00200114002001UL, 0x2800200124002001UL,
  0x34007fe438002001UL, 0x0000000000000064UL, 0x0000000210007c00UL, 0x0000006410000424UL,
  0x10007c0000000000UL, 0x10007bc440000000UL, 0x0000000000000064UL, 0x00000000100a7c00UL,
  0x00000000100c0043UL, 0x100f012300000000UL, 0x0000000000000000UL, 0x0000000000000000UL,
  0x0000000000000000UL, 0x0000000000000000UL, 0x10207c0000000000UL, 0x34007c0000000000UL,
  0x3400042400000002UL, 0x0000000000000064UL, 0x4000000034007c00UL, 0x0000006434007bc4UL,
  0x0080010100000000UL, 0x000000023c007c00UL, 0x000000643c000424UL, 0x3c007c0000000000UL,
  0x3c007bc440000000UL, 0x0000000000000064UL, 0x40007c0000800141UL, 0x4000042400000002UL,
  0x0000000000000064UL, 0x4000000040007c00UL, 0x0000006440007bc4UL, 0x0080016100000000UL,
  0x0000000244007c00UL, 0x0000006444000424UL, 0x44007c0000000000UL, 0x44007bc440000000UL,
  0x0000000000000064UL, 0x48007c0000800181UL, 0x4800042400000002UL, 0x0000000000000064UL,
  0x4000000048007c00UL, 0x0000006448007bc4UL, 0x008001a100000000UL, 0x0800000260007c00UL,
  0x0000006460000424UL, 0x60007c0000000000UL, 0x60007bc448000000UL, 0x0000000000000064UL,
  0x14007c0000800261UL, 0x1400042400000002UL, 0x0000000000000064UL, 0x4000000014007c00UL,
  0x0000006414007bc4UL, 0x0080000100000000UL, 0x000000021c007c00UL, 0x000000641c000424UL,
  0x1c007c0000000000UL, 0x1c007bc440000000UL, 0x0000000000000064UL, 0x24007c0000800041UL,
  0x2400042400000002UL, 0x0000000000000064UL, 0x4000000024007c00UL, 0x0000006424007bc4UL,
  0x0080008100000000UL, 0x0000000228007c00UL, 0x0000006428000424UL, 0x28007c0000000000UL,
  0x28007bc440000000UL, 0x0000000000000064UL, 0x38007c00008000a1UL, 0x3800042400000002UL,
  0x0000000000000064UL, 0x4000000038007c00UL, 0x0000006438007bc4UL, 0x0080012100000000UL,
  0x000000000000000cUL
};

#define _ec_blob_network_21_address _ec_blob_network_21

ECBLOB_CONST_SECTION
// aligned to the cache line size (equal to 64 bytes)
__attribute__((aligned(64)))
static const uint64_t _ec_blob_network_33[592] =
{
  0x00000490ca057a7aUL, 0x008022810000043dUL, 0x0800000064000042UL, 0x64027c0015000060UL,
  0x6407004300080000UL, 0x0000ffb2b7db532fUL, 0x00000000640c0043UL, 0x0080214110411041UL,
  0x000000543c007c00UL, 0x040803033c0200e3UL, 0x10b7400200001155UL, 0x013f000000280140UL,
  0x0003001000270000UL, 0x000000003c0a7c00UL, 0x00ffff8f3c0c0043UL, 0x0080216100000000UL,
  0x0000004040007c00UL, 0x04080303400200e3UL, 0x10b7400000001155UL, 0x013f000000280140UL,
  0x0007041000270000UL, 0x00000000400a7c00UL, 0x00ffff8f400c0043UL, 0x0080218100000000UL,
  0x0000004044007c00UL, 0x04080303440200e3UL, 0x10b7400000001155UL, 0x013f000000280140UL,
  0x000b081000270000UL, 0x00000000440a7c00UL, 0x00ffff8f440c0043UL, 0x008021a100000000UL,
  0x0000004048007c00UL, 0x04080303480200e3UL, 0x10a3420000001155UL, 0x013f000000280140UL,
  0x000f0c1000270000UL, 0x00000000480a7c00UL, 0x00ffff8f480c0043UL, 0x008022a100000000UL,
  0x0800000068000042UL, 0x68020123156000fcUL, 0x00000000000a8000UL, 0x000018ff00000003UL,
  0x00005d3d0000c7ffUL, 0x078403fd00000000UL, 0x680c004300000001UL, 0x2042204200000000UL,
  0x00000001680b7c00UL, 0x05525d3d69000803UL, 0xfcf85d3d0000d1c3UL, 0x019c5d3d0000f67dUL,
  0x00b25d3d0000947aUL, 0x032c5d3d0000923dUL, 0xfd735d3d000008aaUL, 0x03555d3d000010f4UL,
  0xff855d3d00000214UL, 0x01ff5d3d0000176dUL, 0x032a5d3d0000a590UL, 0x00dd5d3d00001f28UL,
  0xfccc5d3d00002f3bUL, 0xfed85d3d000058a9UL, 0x01355d3d0000ffd9UL, 0x03ca5d3d00009912UL,
  0x028b5d3d00006072UL, 0x00b25d3d0000deb0UL, 0xfee15d3d0000923dUL, 0xffc95d3d0000031eUL,
  0x04ca5d3d000061c8UL, 0x0a325d3d000082f7UL, 0x03815d3d000070f1UL, 0x04fb5d3d00002b59UL,
  0x02035d3d0000dce2UL, 0x04215d3d000032a5UL, 0xfe1e5d3d00006ca1UL, 0x02f25d3d000010caUL,
  0x05695d3d0000da18UL, 0xff2d5d3d0000f275UL, 0x09b45d3d000096afUL, 0x039e5d3d0000b215UL,
  0x031d5d3d0000088fUL, 0x0080222100004879UL, 0x0174104c58007c00UL, 0x00087f8058020043UL,
  0x590002030210220fUL, 0x00000008000000c0UL, 0x0000000a00000009UL, 0x00000013000000cbUL,
  0x0000001c000000d4UL, 0x0000005e0000001dUL, 0x0000002100000020UL, 0x0000006300000022UL,
  0x000000e600000025UL, 0x000000005a000b83UL, 0x000000000000c680UL, 0x000000000000c680UL,
  0x000000000000c680UL, 0x000000000000c680UL, 0x000000000000c680UL, 0x000000000000c600UL,
  0x000000000000c600UL, 0x000000000000c600UL, 0x1702009c0000c600UL, 0xfc7200000000d2c9UL,
  0x000000000000c100UL, 0x000000000000c480UL, 0xe00000000000c480UL, 0x000000000000a680UL,
  0x000000000000c400UL, 0xe00000000000c400UL, 0x000000000000a900UL, 0x000000000000c380UL,
  0xf99a00000000c380UL, 0x000000000000be66UL, 0xe00000000000c180UL, 0x000000000000b280UL,
  0x000000000000c100UL, 0xe00000000000c100UL, 0x000000000000b500UL, 0x000000000000c080UL,
  0x000000000000c080UL, 0x0ace01aa0000c080UL, 0x0b6e030c0000c14eUL, 0x16ef02220000c17dUL,
  0x1a2202220000bfadUL, 0x3fa700470000be93UL, 0x36ab00c30000b2dbUL, 0x4c0000000000b557UL,
  0x4aab00000000ac08UL, 0xe80002220000adabUL, 0x62ecff7e0000f4cbUL, 0x4000000000009b49UL,
  0x600000000000bf80UL, 0x4000000000008680UL, 0x600000000000c000UL, 0x4000000000008500UL,
  0x400000000000c080UL, 0x400000000000c080UL, 0x200000000000c100UL, 0x0080212100000000UL,
  0x0008010438007c00UL, 0x342a200038020043UL, 0x380500c30000c800UL, 0x0000c80000000000UL,
  0x0000000000000000UL, 0x0010000000000024UL, 0x00000006380c0042UL, 0x380d004300000007UL,
  0x342ae83f00000001UL, 0x0000000038110043UL, 0x0080204100000000UL, 0x0008c0001c007c00UL,
  0x342a20001c020123UL, 0x0020000800280028UL, 0x0000002000000500UL, 0x0000000000000001UL,
  0x0010000000000024UL, 0x000000061c0c0042UL, 0x1c0d004300000007UL, 0x342ae83f00000008UL,
  0x000000001c110043UL, 0x008020a100000000UL, 0x0008c18428007c00UL, 0x704ccb4028020043UL,
  0x280500c300002400UL, 0x0000000000000000UL, 0x0000000000000000UL, 0x0010000000000024UL,
  0x00000006280c0042UL, 0x280d004300000007UL, 0x704cef7f00000001UL, 0x0000000028110043UL,
  0x0080206100000008UL, 0x0008c00020007c00UL, 0x342a200820020123UL, 0x0020000800280028UL,
  0x0000002000000500UL, 0x0000000000000001UL, 0x0010000000000024UL, 0x00000006200c0042UL,
  0x200d004300000007UL, 0x342ae83f00000008UL, 0x0000000020110043UL, 0x008020e100000000UL,
  0x0008c00030007c00UL, 0x342a201030020123UL, 0x0020000800280028UL, 0x0000002000000500UL,
  0x0000000000000001UL, 0x0010000000000024UL, 0x00000006300c0042UL, 0x300d004300000007UL,
  0x342ae83f00000008UL, 0x0000000030110043UL, 0x0080202100000000UL, 0x0008c00018007c00UL,
  0x342a201818020123UL, 0x0020000800280028UL, 0x0000002000000500UL, 0x0000000000000001UL,
  0x0010000000000024UL, 0x00000006180c0042UL, 0x180d004300000007UL, 0x342ae83f00000008UL,
  0x0000000018110043UL, 0x0080210100000000UL, 0x0008010c34007c00UL, 0x3427c80034020043UL,
  0x340500c30000c800UL, 0x0000c80000000000UL, 0x0000000000000000UL, 0x0010000000000024UL,
  0x00000006340c0042UL, 0x340d004300000007UL, 0x3428903f00000001UL, 0x0000000034110043UL,
  0x008020c100000000UL, 0x000800082c007c00UL, 0x343120002c020123UL, 0x0020000400280028UL,
  0x0000000400000500UL, 0x0000c80000000008UL, 0x0010000000000024UL, 0x000000062c0c0042UL,
  0x2c0d004300000007UL, 0x3431e83f00000008UL, 0x000000002c110043UL, 0x10087c0000000000UL,
  0x100a7c0000000023UL, 0x100c004300000029UL, 0x0000000b00000005UL, 0x00000007100f0123UL,
  0x000000150000000bUL, 0x0000000b0000000fUL, 0x0000000300000017UL, 0x000000190000000bUL,
  0x0000002b101d7c00UL, 0x0000001310227c00UL, 0x0000001b10247c00UL, 0x0000000110007c00UL,
  0x340020012c002001UL, 0x000000553c007c00UL, 0x0000004140007c00UL, 0x0000004144007c00UL,
  0x0000004148007c00UL, 0x6400200158002001UL, 0x1800200168002001UL, 0x200020011c002001UL,
  0x3000200128002001UL, 0x2c007fe438002001UL, 0x0000000000000064UL, 0x0000006434007fe4UL,
  0x10007c0000000000UL, 0x1000042400000002UL, 0x0000000000000064UL, 0x4000000010007c00UL,
  0x0000006410007bc4UL, 0x10087c0000000000UL, 0x100a7c0000000000UL, 0x100c004300000000UL,
  0x0000000000000000UL, 0x00000000100f0123UL, 0x0000000000000000UL, 0x0000000000000000UL,
  0x0000000000000000UL, 0x0000000000000000UL, 0x00000000101d7c00UL, 0x0000000010227c00UL,
  0x0000000010247c00UL, 0x000000022c007c00UL, 0x000000642c000424UL, 0x2c007c0000000000UL,
  0x2c007bc440000000UL, 0x0000000000000064UL, 0x34007c00008000c1UL, 0x3400042400000002UL,
  0x0000000000000064UL, 0x4000000034007c00UL, 0x0000006434007bc4UL, 0x0080010100000000UL,
  0x000000023c007c00UL, 0x000000643c000424UL, 0x3c007c0000000000UL, 0x3c007bc440000000UL,
  0x0000000000000064UL, 0x40007c0000800141UL, 0x4000042400000002UL, 0x0000000000000064UL,
  0x4000000040007c00UL, 0x0000006440007bc4UL, 0x0080016100000000UL, 0x0000000244007c00UL,
  0x0000006444000424UL, 0x44007c0000000000UL, 0x44007bc440000000UL, 0x0000000000000064UL,
  0x48007c0000800181UL, 0x4800042400000002UL, 0x0000000000000064UL, 0x4000000048007c00UL,
  0x0000006448007bc4UL, 0x008001a100000000UL, 0x0088108258007c00UL, 0x0000006458000424UL,
  0x58007c0000000000UL, 0x58007bc440881080UL, 0x0000000000000064UL, 0x64007c0000800221UL,
  0x6400042408000002UL, 0x0000000000000064UL, 0x4800000064007c00UL, 0x0000006464007bc4UL,
  0x0080028100000000UL, 0x0800000268007c00UL, 0x0000006468000424UL, 0x68007c0000000000UL,
  0x68007bc448000000UL, 0x0000000000000064UL, 0x18007c00008002a1UL, 0x1800042400000002UL,
  0x0000000000000064UL, 0x4000000018007c00UL, 0x0000006418007bc4UL, 0x0080002100000000UL,
  0x000000021c007c00UL, 0x000000641c000424UL, 0x1c007c0000000000UL, 0x1c007bc440000000UL,
  0x0000000000000064UL, 0x20007c0000800041UL, 0x2000042400000002UL, 0x0000000000000064UL,
  0x4000000020007c00UL, 0x0000006420007bc4UL, 0x0080006100000000UL, 0x0000000228007c00UL,
  0x0000006428000424UL, 0x28007c0000000000UL, 0x28007bc440000000UL, 0x0000000000000064UL,
  0x30007c00008000a1UL, 0x3000042400000002UL, 0x0000000000000064UL, 0x4000000030007c00UL,
  0x0000006430007bc4UL, 0x008000e100000000UL, 0x0000000238007c00UL, 0x0000006438000424UL,
  0x38007c0000000000UL, 0x38007bc440000000UL, 0x0000000000000064UL, 0x0000045d00800121UL,
  0x3c007c0000802141UL, 0x3c0200e300000054UL, 0x0000115504080303UL, 0x0028014010b74004UL,
  0x00270000013f0000UL, 0x3c0a7c0000030010UL, 0x3c0c004300000000UL, 0x0000000000ffff8dUL,
  0x40007c0000802161UL, 0x400200e300000040UL, 0x0000115504080303UL, 0x0028014010b74000UL,
  0x00270000013f0000UL, 0x400a7c0000070410UL, 0x400c004300000000UL, 0x0000000000ffff8dUL,
  0x44007c0000802181UL, 0x440200e300000040UL, 0x0000115504080303UL, 0x0028014010b74000UL,
  0x00270000013f0000UL, 0x440a7c00000b0810UL, 0x440c004300000000UL, 0x0000000000ffff8dUL,
  0x48007c00008021a1UL, 0x480200e300000040UL, 0x0000115504080303UL, 0x0028014010a34400UL,
  0x00270000013f0000UL, 0x480a7c00000f0c10UL, 0x480c004300000000UL, 0x0000000000ffff8dUL,
  0x5c00004200802241UL, 0x156000fc08000000UL, 0x000980005c020123UL, 0x0000000300000000UL,
  0x0000c7ff000018ffUL, 0x0000000000006093UL, 0x00000001078403fdUL, 0x000000005c0c0043UL,
  0x5c0b7c0020422042UL, 0x5d00080300000001UL, 0x0000dfd200b26093UL, 0x000034f5004d6093UL,
  0x0000838600e86093UL, 0x000095ab00a96093UL, 0x0000d52600ee6093UL, 0x000029d3010c6093UL,
  0x0000eacb019b6093UL, 0x000082d9018d6093UL, 0x0000c50a01036093UL, 0x0000979000cf6093UL,
  0x000014d900666093UL, 0x0000327d01676093UL, 0x000076da010f6093UL, 0x0000988200e26093UL,
  0x000054ad00e56093UL, 0x0000cc7200d26093UL, 0x0000172000876093UL, 0x00005cec00d86093UL,
  0x0000f41a00e46093UL, 0x0000006c00846093UL, 0x0000bcb200756093UL, 0x00009a8200f76093UL,
  0x00004e5c00d96093UL, 0x0000769500576093UL, 0x00004d1601a56093UL, 0x0000065000d46093UL,
  0x0000b75b00e96093UL, 0x00007a4300b46093UL, 0x0000202d00dd6093UL, 0x0000bea800c96093UL,
  0x0000b72e00cc6093UL, 0x0000ed1401106093UL, 0x1c007c0000802041UL, 0x1c0201230008c000UL,
  0x0028002834312000UL, 0x0000050000200008UL, 0x0000000100000020UL, 0x0000002400000000UL,
  0x1c0c004200100000UL, 0x0000000700000006UL, 0x000000081c0d0043UL, 0x1c1100433431e83fUL,
  0x0000000000000000UL, 0x24007c0000802081UL, 0x240200430008c184UL, 0x00002400704cef40UL,
  0x00000000240500c3UL, 0x0000000000000000UL, 0x0000002400000000UL, 0x240c004200100000UL,
  0x0000000700000006UL, 0x00000001240d0043UL, 0x24110043704d137fUL, 0x0000000800000000UL,
  0x20007c0000802061UL, 0x200201230008c000UL, 0x0028002834312008UL, 0x0000050000200008UL,
  0x0000000100000020UL, 0x0000002400000000UL, 0x200c004200100000UL, 0x0000000700000006UL,
  0x00000008200d0043UL, 0x201100433431e83fUL, 0x0000000000000000UL, 0x38007c0000802121UL,
  0x380201230008c000UL, 0x0028002834312010UL, 0x0000050000200008UL, 0x0000000100000020UL,
  0x0000002400000000UL, 0x380c004200100000UL, 0x0000000700000006UL, 0x00000008380d0043UL,
  0x381100433431e83fUL, 0x0000000000000000UL, 0x2c007c00008020c1UL, 0x2c0201230008c000UL,
  0x0028002834312018UL, 0x0000050000200008UL, 0x0000000100000020UL, 0x0000002400000000UL,
  0x2c0c004200100000UL, 0x0000000700000006UL, 0x000000082c0d0043UL, 0x2c1100433431e83fUL,
  0x0000000000000000UL, 0x34007c0000802101UL, 0x3402012300080008UL, 0x00280028342a2000UL,
  0x0000050000200004UL, 0x0000000800000004UL, 0x000000240000c800UL, 0x340c004200100000UL,
  0x0000000700000006UL, 0x00000008340d0043UL, 0x34110043342ae83fUL, 0x0000000000000000UL,
  0x00000025100a7c00UL, 0x00000005100c0043UL, 0x100f012300000009UL, 0x0000000900000007UL,
  0x0000001300000015UL, 0x0000001700000009UL, 0x000000090000000dUL, 0x101e7c0000000019UL,
  0x10007c000000001bUL, 0x3400200100000001UL, 0x000000553c007c00UL, 0x0000004140007c00UL,
  0x0000004144007c00UL, 0x0000004148007c00UL, 0x1c0020015c002001UL, 0x2400200120002001UL,
  0x380020012c002001UL, 0x0000006434007fe4UL, 0x10007c0000000000UL, 0x1000042400000002UL,
  0x0000000000000064UL, 0x4000000010007c00UL, 0x0000006410007bc4UL, 0x100a7c0000000000UL,
  0x100c004300000000UL, 0x0000000000000000UL, 0x00000000100f0123UL, 0x0000000000000000UL,
  0x0000000000000000UL, 0x0000000000000000UL, 0x0000000000000000UL, 0x00000000101e7c00UL,
  0x0000000234007c00UL, 0x0000006434000424UL, 0x34007c0000000000UL, 0x34007bc440000000UL,
  0x0000000000000064UL, 0x3c007c0000800101UL, 0x3c00042400000002UL, 0x0000000000000064UL,
  0x400000003c007c00UL, 0x000000643c007bc4UL, 0x0080014100000000UL, 0x0000000240007c00UL,
  0x0000006440000424UL, 0x40007c0000000000UL, 0x40007bc440000000UL, 0x0000000000000064UL,
  0x44007c0000800161UL, 0x4400042400000002UL, 0x0000000000000064UL, 0x4000000044007c00UL,
  0x0000006444007bc4UL, 0x0080018100000000UL, 0x0000000248007c00UL, 0x0000006448000424UL,
  0x48007c0000000000UL, 0x48007bc440000000UL, 0x0000000000000064UL, 0x5c007c00008001a1UL,
  0x5c00042408000002UL, 0x0000000000000064UL, 0x480000005c007c00UL, 0x000000645c007bc4UL,
  0x0080024100000000UL, 0x000000021c007c00UL, 0x000000641c000424UL, 0x1c007c0000000000UL,
  0x1c007bc440000000UL, 0x0000000000000064UL, 0x20007c0000800041UL, 0x2000042400000002UL,
  0x0000000000000064UL, 0x4000000020007c00UL, 0x0000006420007bc4UL, 0x0080006100000000UL,
  0x0000000224007c00UL, 0x0000006424000424UL, 0x24007c0000000000UL, 0x24007bc440000000UL,
  0x0000000000000064UL, 0x2c007c0000800081UL, 0x2c00042400000002UL, 0x0000000000000064UL,
  0x400000002c007c00UL, 0x000000642c007bc4UL, 0x008000c100000000UL, 0x0000000238007c00UL,
  0x0000006438000424UL, 0x38007c0000000000UL, 0x38007bc440000000UL, 0x0000000000000064UL,
  0x0000000c00800121UL
};

#define _ec_blob_network_33_address _ec_blob_network_33

ECBLOB_CONST_SECTION
// aligned to the cache line size (equal to 64 bytes)
__attribute__((aligned(64)))
static const uint64_t _ec_blob_network_42[568] =
{
  0x00000460ca057a7aUL, 0x008022610000055dUL, 0x0800000060000042UL, 0x60027c0015000060UL,
  0x6007004300078000UL, 0x0000ffe318b041fdUL, 0x00000000600c0043UL, 0x0080214110411041UL,
  0x000000543c007c00UL, 0x040803033c0200e3UL, 0x10b7400300001155UL, 0x013f000000280140UL,
  0x0003001000270000UL, 0x000000003c0a7c00UL, 0x00ffff933c0c0043UL, 0x0080216100000000UL,
  0x0000004040007c00UL, 0x04080303400200e3UL, 0x10b7400000001155UL, 0x013f000000280140UL,
  0x0007041000270000UL, 0x00000000400a7c00UL, 0x00ffff93400c0043UL, 0x0080218100000000UL,
  0x0000004044007c00UL, 0x04080303440200e3UL, 0x10b7400000001155UL, 0x013f000000280140UL,
  0x000b081000270000UL, 0x00000000440a7c00UL, 0x00ffff93440c0043UL, 0x008021a100000000UL,
  0x0000004048007c00UL, 0x04080303480200e3UL, 0x10a3430000001155UL, 0x013f000000280140UL,
  0x000f0c1000270000UL, 0x00000000480a7c00UL, 0x00ffff93480c0043UL, 0x0080228100000000UL,
  0x0800000064000042UL, 0x64020123156000fcUL, 0x00000000000a0000UL, 0x000018ff00000003UL,
  0x000048160000c7ffUL, 0x078403fd00000000UL, 0x640c004300000001UL, 0x2042204200000000UL,
  0x00000001640b7c00UL, 0x0483481665000803UL, 0x03df48160000ad0aUL, 0x01bf48160000ee4dUL,
  0x01ed48160000dcb7UL, 0x01ce481600003bc7UL, 0x031a48160000ae4fUL, 0x0179481600005312UL,
  0x03134816000076e7UL, 0x0236481600005ae9UL, 0x03d648160000cc91UL, 0x041e48160000ac6eUL,
  0x023d481600002091UL, 0x02ea48160000d6c0UL, 0x013248160000ce59UL, 0x042f4816000053deUL,
  0x04ab4816000005ceUL, 0x0113481600006a5aUL, 0x02e348160000e16dUL, 0x02f0481600008517UL,
  0x02b5481600003104UL, 0x01d14816000083d5UL, 0x038a48160000be42UL, 0x03444816000026b9UL,
  0x0163481600004812UL, 0x01464816000013f8UL, 0x03f84816000009f9UL, 0x01b94816000013c8UL,
  0x028b4816000062b6UL, 0x02db48160000f1f4UL, 0x033d481600002d81UL, 0x01cb48160000aa05UL,
  0x035148160000a75fUL, 0x0080220100006923UL, 0x0174104c54007c00UL, 0x00087f8054020043UL,
  0x550002030210324fUL, 0x0000000100000000UL, 0x0000000300000002UL, 0x0000000500000004UL,
  0x0000000700000006UL, 0x0000000900000008UL, 0x0000000b0000000aUL, 0x0000000d0000000cUL,
  0x000000cf0000000eUL, 0x00000000560005c3UL, 0x000000000000e3c0UL, 0x000000000000e3c0UL,
  0xf8beffb60000e3c0UL, 0x000000000000de6bUL, 0xfeab00000000e380UL, 0xfdb700000000e263UL,
  0xfc0000000000e1dbUL, 0xfb6e00000000e158UL, 0xeee902e90000e149UL, 0xd68c05d10000e311UL,
  0xe2e904a80000e997UL, 0x0e0801f80000e577UL, 0x20cd00ea0000cfdcUL, 0x4622ff4a0000c590UL,
  0x300000000000aab4UL, 0x300000000000c000UL, 0x300000000000c040UL, 0x400000000000c040UL,
  0x300000000000a2c0UL, 0x300000000000c080UL, 0x300000000000c080UL, 0x300000000000c080UL,
  0x008020810000c080UL, 0x0008010424007c00UL, 0x342e000024020043UL, 0x240500c30000c800UL,
  0x0000c80000000000UL, 0x0000000000000000UL, 0x0010000000000024UL, 0x00000006240c0042UL,
  0x240d004300000007UL, 0x342ec83f00000001UL, 0x0000000024110043UL, 0x0080212100000000UL,
  0x0008c00038007c00UL, 0x342ec80038020123UL, 0x0020000800280028UL, 0x0000002000000500UL,
  0x0000000000000001UL, 0x0010000000000024UL, 0x00000006380c0042UL, 0x380d004300000007UL,
  0x342f903f00000008UL, 0x0000000038110043UL, 0x0080204100000000UL, 0x0008c1841c007c00UL,
  0x704d13401c020043UL, 0x1c0500c300002400UL, 0x0000000000000000UL, 0x0000000000000000UL,
  0x0010000000000024UL, 0x000000061c0c0042UL, 0x1c0d004300000007UL, 0x704d377f00000001UL,
  0x000000001c110043UL, 0x008020c100000008UL, 0x0008c0002c007c00UL, 0x342ec8082c020123UL,
  0x0020000800280028UL, 0x0000002000000500UL, 0x0000000000000001UL, 0x0010000000000024UL,
  0x000000062c0c0042UL, 0x2c0d004300000007UL, 0x342f903f00000008UL, 0x000000002c110043UL,
  0x008020a100000000UL, 0x0008c00028007c00UL, 0x342ec81028020123UL, 0x0020000800280028UL,
  0x0000002000000500UL, 0x0000000000000001UL, 0x0010000000000024UL, 0x00000006280c0042UL,
  0x280d004300000007UL, 0x342f903f00000008UL, 0x0000000028110043UL, 0x0080206100000000UL,
  0x0008c00020007c00UL, 0x342ec81820020123UL, 0x0020000800280028UL, 0x0000002000000500UL,
  0x0000000000000001UL, 0x0010000000000024UL, 0x00000006200c0042UL, 0x200d004300000007UL,
  0x342f903f00000008UL, 0x0000000020110043UL, 0x0080202100000000UL, 0x0008010c18007c00UL,
  0x3428900018020043UL, 0x180500c30000c800UL, 0x0000c80000000000UL, 0x0000000000000000UL,
  0x0010000000000024UL, 0x00000006180c0042UL, 0x180d004300000007UL, 0x3429583f00000001UL,
  0x0000000018110043UL, 0x0080200100000000UL, 0x0008000814007c00UL, 0x342f900014020123UL,
  0x0020000400280028UL, 0x0000000400000500UL, 0x0000c80000000008UL, 0x0010000000000024UL,
  0x00000006140c0042UL, 0x140d004300000007UL, 0x3430583f00000008UL, 0x0000000014110043UL,
  0x1002004300000000UL, 0x0000002700000021UL, 0x00000013100c0043UL, 0x100f012300000005UL,
  0x000000050000000dUL, 0x0000000b00000015UL, 0x0000001700000005UL, 0x0000000500000007UL,
  0x101c7c0000000019UL, 0x10207c0000000029UL, 0x10227c0000000009UL, 0x10007c000000001bUL,
  0x1400200100000001UL, 0x3c007c0018002001UL, 0x40007c0000000055UL, 0x44007c0000000041UL,
  0x48007c0000000041UL, 0x5400200100000041UL, 0x6400200160002001UL, 0x200020011c002001UL,
  0x2800200124002001UL, 0x380020012c002001UL, 0x0000006414007fe4UL, 0x18007fe400000000UL,
  0x0000000000000064UL, 0x0000000210007c00UL, 0x0000006410000424UL, 0x10007c0000000000UL,
  0x10007bc440000000UL, 0x0000000000000064UL, 0x0000000010020043UL, 0x100c004300000000UL,
  0x0000000000000000UL, 0x00000000100f0123UL, 0x0000000000000000UL, 0x0000000000000000UL,
  0x0000000000000000UL, 0x0000000000000000UL, 0x00000000101c7c00UL, 0x0000000010207c00UL,
  0x0000000010227c00UL, 0x0000000214007c00UL, 0x0000006414000424UL, 0x14007c0000000000UL,
  0x14007bc440000000UL, 0x0000000000000064UL, 0x18007c0000800001UL, 0x1800042400000002UL,
  0x0000000000000064UL, 0x4000000018007c00UL, 0x0000006418007bc4UL, 0x0080002100000000UL,
  0x000000023c007c00UL, 0x000000643c000424UL, 0x3c007c0000000000UL, 0x3c007bc440000000UL,
  0x0000000000000064UL, 0x40007c0000800141UL, 0x4000042400000002UL, 0x0000000000000064UL,
  0x4000000040007c00UL, 0x0000006440007bc4UL, 0x0080016100000000UL, 0x0000000244007c00UL,
  0x0000006444000424UL, 0x44007c0000000000UL, 0x44007bc440000000UL, 0x0000000000000064UL,
  0x48007c0000800181UL, 0x4800042400000002UL, 0x0000000000000064UL, 0x4000000048007c00UL,
  0x0000006448007bc4UL, 0x008001a100000000UL, 0x0088108254007c00UL, 0x0000006454000424UL,
  0x54007c0000000000UL, 0x54007bc440881080UL, 0x0000000000000064UL, 0x60007c0000800201UL,
  0x6000042408000002UL, 0x0000000000000064UL, 0x4800000060007c00UL, 0x0000006460007bc4UL,
  0x0080026100000000UL, 0x0800000264007c00UL, 0x0000006464000424UL, 0x64007c0000000000UL,
  0x64007bc448000000UL, 0x0000000000000064UL, 0x1c007c0000800281UL, 0x1c00042400000002UL,
  0x0000000000000064UL, 0x400000001c007c00UL, 0x000000641c007bc4UL, 0x0080004100000000UL,
  0x0000000220007c00UL, 0x0000006420000424UL, 0x20007c0000000000UL, 0x20007bc440000000UL,
  0x0000000000000064UL, 0x24007c0000800061UL, 0x2400042400000002UL, 0x0000000000000064UL,
  0x4000000024007c00UL, 0x0000006424007bc4UL, 0x0080008100000000UL, 0x0000000228007c00UL,
  0x0000006428000424UL, 0x28007c0000000000UL, 0x28007bc440000000UL, 0x0000000000000064UL,
  0x2c007c00008000a1UL, 0x2c00042400000002UL, 0x0000000000000064UL, 0x400000002c007c00UL,
  0x000000642c007bc4UL, 0x008000c100000000UL, 0x0000000238007c00UL, 0x0000006438000424UL,
  0x38007c0000000000UL, 0x38007bc440000000UL, 0x0000000000000064UL, 0x0000057d00800121UL,
  0x3c007c0000802141UL, 0x3c0200e300000054UL, 0x0000115504080303UL, 0x0028014010b74003UL,
  0x00270000013f0000UL, 0x3c0a7c0000030010UL, 0x3c0c004300000000UL, 0x0000000000ffff8fUL,
  0x40007c0000802161UL, 0x400200e300000040UL, 0x0000115504080303UL, 0x0028014010b74000UL,
  0x00270000013f0000UL, 0x400a7c0000070410UL, 0x400c004300000000UL, 0x0000000000ffff8fUL,
  0x44007c0000802181UL, 0x440200e300000040UL, 0x0000115504080303UL, 0x0028014010b74000UL,
  0x00270000013f0000UL, 0x440a7c00000b0810UL, 0x440c004300000000UL, 0x0000000000ffff8fUL,
  0x48007c00008021a1UL, 0x480200e300000040UL, 0x0000115504080303UL, 0x0028014010a34300UL,
  0x00270000013f0000UL, 0x480a7c00000f0c10UL, 0x480c004300000000UL, 0x0000000000ffff8fUL,
  0x68000042008022a1UL, 0x156000fc08000000UL, 0x000a000068020123UL, 0x0000000300000000UL,
  0x0000c7ff000018ffUL, 0x0000000000005cdfUL, 0x00000001078403fdUL, 0x00000000680c0043UL,
  0x680b7c0020422042UL, 0x6900080300000001UL, 0x00004734feb75cdfUL, 0x0000ffc7ffd95cdfUL,
  0x0000f808ff995cdfUL, 0x0000b031ff635cdfUL, 0x00007282ff095cdfUL, 0x00008ca7ffb15cdfUL,
  0x0000c9cdfe9f5cdfUL, 0x00002f65ff185cdfUL, 0x00000c33fedf5cdfUL, 0x0000e47efdc65cdfUL,
  0x00002bfcfe845cdfUL, 0x000076d9feb55cdfUL, 0x0000005bff195cdfUL, 0x0000b87600af5cdfUL,
  0x00003687fef95cdfUL, 0x0000f7defe665cdfUL, 0x000067b6015b5cdfUL, 0x0000fc9bff0b5cdfUL,
  0x00004efe00175cdfUL, 0x0000ed34fdde5cdfUL, 0x00000082ffec5cdfUL, 0x00008fe8ff725cdfUL,
  0x0000b81ffde95cdfUL, 0x00001a80ffc15cdfUL, 0x000039defdad5cdfUL, 0x0000bd9aff005cdfUL,
  0x00007cc5fe985cdfUL, 0x00007584fea45cdfUL, 0x000082ccfe2e5cdfUL, 0x0000d228fede5cdfUL,
  0x000082dbffae5cdfUL, 0x00008d42ffb05cdfUL, 0x38007c0000802121UL, 0x380201230008c000UL,
  0x00280028342f9000UL, 0x0000050000200008UL, 0x0000000100000020UL, 0x0000002400000000UL,
  0x380c004200100000UL, 0x0000000700000006UL, 0x00000008380d0043UL, 0x381100433430583fUL,
  0x0000000000000000UL, 0x34007c0000802101UL, 0x340200430008c184UL, 0x00002400704d3740UL,
  0x00000000340500c3UL, 0x0000000000000000UL, 0x0000002400000000UL, 0x340c004200100000UL,
  0x0000000700000006UL, 0x00000001340d0043UL, 0x34110043704d5b7fUL, 0x0000000800000000UL,
  0x1c007c0000802041UL, 0x1c0201230008c000UL, 0x00280028342f9008UL, 0x0000050000200008UL,
  0x0000000100000020UL, 0x0000002400000000UL, 0x1c0c004200100000UL, 0x0000000700000006UL,
  0x000000081c0d0043UL, 0x1c1100433430583fUL, 0x0000000000000000UL, 0x18007c0000802021UL,
  0x180201230008c000UL, 0x00280028342f9010UL, 0x0000050000200008UL, 0x0000000100000020UL,
  0x0000002400000000UL, 0x180c004200100000UL, 0x0000000700000006UL, 0x00000008180d0043UL,
  0x181100433430583fUL, 0x0000000000000000UL, 0x2c007c00008020c1UL, 0x2c0201230008c000UL,
  0x00280028342f9018UL, 0x0000050000200008UL, 0x0000000100000020UL, 0x0000002400000000UL,
  0x2c0c004200100000UL, 0x0000000700000006UL, 0x000000082c0d0043UL, 0x2c1100433430583fUL,
  0x0000000000000000UL, 0x14007c0000802001UL, 0x1402012300080008UL, 0x0028002834312000UL,
  0x0000050000200004UL, 0x0000000800000004UL, 0x000000240000c800UL, 0x140c004200100000UL,
  0x0000000700000006UL, 0x00000008140d0043UL, 0x141100433431e83fUL, 0x0000000000000000UL,
  0x0000002b10027c00UL, 0x00000013100c0043UL, 0x100f012300000011UL, 0x0000001100000005UL,
  0x0000000300000015UL, 0x0000001700000011UL, 0x000000110000000dUL, 0x10247c0000000019UL,
  0x10007c000000001bUL, 0x1400200100000001UL, 0x000000553c007c00UL, 0x0000004140007c00UL,
  0x0000004144007c00UL, 0x0000004148007c00UL, 0x1800200168002001UL, 0x2c0020011c002001UL,
  0x3800200134002001UL, 0x0000006414007fe4UL, 0x10007c0000000000UL, 0x1000042400000002UL,
  0x0000000000000064UL, 0x4000000010007c00UL, 0x0000006410007bc4UL, 0x10027c0000000000UL,
  0x100c004300000000UL, 0x0000000000000000UL, 0x00000000100f0123UL, 0x0000000000000000UL,
  0x0000000000000000UL, 0x0000000000000000UL, 0x0000000000000000UL, 0x0000000010247c00UL,
  0x0000000214007c00UL, 0x0000006414000424UL, 0x14007c0000000000UL, 0x14007bc440000000UL,
  0x0000000000000064UL, 0x3c007c0000800001UL, 0x3c00042400000002UL, 0x0000000000000064UL,
  0x400000003c007c00UL, 0x000000643c007bc4UL, 0x0080014100000000UL, 0x0000000240007c00UL,
  0x0000006440000424UL, 0x40007c0000000000UL, 0x40007bc440000000UL, 0x0000000000000064UL,
  0x44007c0000800161UL, 0x4400042400000002UL, 0x0000000000000064UL, 0x4000000044007c00UL,
  0x0000006444007bc4UL, 0x0080018100000000UL, 0x0000000248007c00UL, 0x0000006448000424UL,
  0x48007c0000000000UL, 0x48007bc440000000UL, 0x0000000000000064UL, 0x68007c00008001a1UL,
  0x6800042408000002UL, 0x0000000000000064UL, 0x4800000068007c00UL, 0x0000006468007bc4UL,
  0x008002a100000000UL, 0x0000000218007c00UL, 0x0000006418000424UL, 0x18007c0000000000UL,
  0x18007bc440000000UL, 0x0000000000000064UL, 0x1c007c0000800021UL, 0x1c00042400000002UL,
  0x0000000000000064UL, 0x400000001c007c00UL, 0x000000641c007bc4UL, 0x0080004100000000UL,
  0x000000022c007c00UL, 0x000000642c000424UL, 0x2c007c0000000000UL, 0x2c007bc440000000UL,
  0x0000000000000064UL, 0x34007c00008000c1UL, 0x3400042400000002UL, 0x0000000000000064UL,
  0x4000000034007c00UL, 0x0000006434007bc4UL, 0x0080010100000000UL, 0x0000000238007c00UL,
  0x0000006438000424UL, 0x38007c0000000000UL, 0x38007bc440000000UL, 0x0000000000000064UL,
  0x0000000c00800121UL
};

#define _ec_blob_network_42_address _ec_blob_network_42

ECBLOB_CONST_SECTION
// aligned to the cache line size (equal to 64 bytes)
__attribute__((aligned(64)))
static const uint64_t _ec_blob_network_50[1184] =
{
  0x0000093aca057a7aUL, 0x008020810000065dUL, 0x0088010024007c00UL, 0x3427000024020043UL,
  0x240500c300006400UL, 0x0000c80000000000UL, 0x0000000000000000UL, 0x0010000000000024UL,
  0x00000006240c0042UL, 0x240d004300000007UL, 0x342a203f00000004UL, 0x0000000024110043UL,
  0x0080210100000000UL, 0x0088000834007c00UL, 0x342e000034020123UL, 0x0080001000280028UL,
  0x0000002000001400UL, 0x0003200000000004UL, 0x0010000000000024UL, 0x00000006340c0042UL,
  0x340d004300000007UL, 0x3431203f00000004UL, 0x0000000034110043UL, 0x100a7c0000000000UL,
  0x10007c0000000009UL, 0x3400200100000001UL, 0x34007fe424002001UL, 0x0000000000000064UL,
  0x0000000210007c00UL, 0x0000006410000424UL, 0x10007c0000000000UL, 0x10007bc440000000UL,
  0x0000000000000064UL, 0x00000000100a7c00UL, 0x0000000234007c00UL, 0x0000006434000424UL,
  0x34007c0000000000UL, 0x34007bc440000000UL, 0x0000000000000064UL, 0x24007c0000800101UL,
  0x2400042400000002UL, 0x0000000000000064UL, 0x4000000024007c00UL, 0x0000006424007bc4UL,
  0x0080008100000000UL, 0x008021410000067dUL, 0x000003503c007c00UL, 0x101001013c020123UL,
  0x10b7400300001100UL, 0x027f000000280280UL, 0x000f004000270000UL, 0x0000000000010102UL,
  0x00ffff8e3c0c0043UL, 0x0080216100000000UL, 0x0000004040007c00UL, 0x10100101400200e3UL,
  0x10b7400000001100UL, 0x027f000000280280UL, 0x001f104000270000UL, 0x00000000400a7c00UL,
  0x00ffff8e400c0043UL, 0x0080218100000000UL, 0x0000004044007c00UL, 0x10100101440200e3UL,
  0x10b7400000001100UL, 0x027f000000280280UL, 0x002f204000270000UL, 0x00000000440a7c00UL,
  0x00ffff8e440c0043UL, 0x008021a100000000UL, 0x0000004048007c00UL, 0x10100101480200e3UL,
  0x10a3430000001100UL, 0x027f000000280280UL, 0x003f304000270000UL, 0x00000000480a7c00UL,
  0x00ffff8e480c0043UL, 0x0080224100000000UL, 0x080000005c000042UL, 0x5c020123156000fcUL,
  0x0000000000098000UL, 0x000063ff0000000fUL, 0x00004c5700018fffUL, 0x070403f100000000UL,
  0x5c0c004300000001UL, 0x2042204200000000UL, 0x000000015c0b7c00UL, 0x01304c575d001003UL,
  0x01b34c5700005883UL, 0x00e84c5700004b06UL, 0xff514c5700001b4fUL, 0x010a4c570000eb96UL,
  0x00cd4c57000049b5UL, 0x01114c5700007e06UL, 0x00c64c5700007b64UL, 0x00a54c570000262bUL,
  0x00d44c5700007f02UL, 0x00cf4c5700009315UL, 0x00ad4c57000077c5UL, 0x00ec4c5700008c2cUL,
  0x01f74c570000b107UL, 0x00264c5700008b31UL, 0x016a4c5700007fffUL, 0x010d4c570000a4dbUL,
  0x01e04c5700003204UL, 0x00b24c5700002c18UL, 0x01854c570000f3d2UL, 0x014d4c5700004baeUL,
  0x01874c5700007524UL, 0x010a4c570000ae66UL, 0x01684c57000019feUL, 0x01a54c570000126dUL,
  0x00eb4c57000076caUL, 0x01e14c570000466aUL, 0x010e4c5700000793UL, 0x01c54c570000635fUL,
  0x01914c5700007bb9UL, 0x01d14c570000bed9UL, 0x01b94c570000136bUL, 0x01514c570000c768UL,
  0x00704c570000ab6fUL, 0x00994c5700004dfbUL, 0x01c94c570000582eUL, 0x014f4c5700000641UL,
  0x01354c5700005bceUL, 0x01a74c570000c02aUL, 0x015e4c570000bce0UL, 0x01be4c570000c0d2UL,
  0x01274c5700005d1fUL, 0x01d84c570000d8d8UL, 0x01ad4c5700001eefUL, 0x00f54c570000a094UL,
  0x01b64c57000000fcUL, 0x007b4c570000d58eUL, 0x017e4c570000dc21UL, 0x01214c57000019feUL,
  0x00e04c570000bbe3UL, 0x01be4c57000050f2UL, 0x00c54c5700009febUL, 0x011f4c5700005dc7UL,
  0x021b4c570000034aUL, 0x01114c570000ec97UL, 0x01664c57000071d9UL, 0x011b4c5700006e8fUL,
  0x016b4c570000e1baUL, 0x01904c570000c320UL, 0x017f4c570000f675UL, 0x00e44c57000067fbUL,
  0x01914c5700009a52UL, 0x01384c570000abc3UL, 0x01964c570000e1baUL, 0x008022210000d09eUL,
  0x0174104c58007c00UL, 0x00087f8058020043UL, 0x590002030210224fUL, 0x0000000100000000UL,
  0x0000000300000002UL, 0x0000000500000004UL, 0x0000000e000000c6UL, 0x00000017000000cfUL,
  0x0000001a00000058UL, 0x0000001c0000001bUL, 0x000000de0000001dUL, 0x000000005a000983UL,
  0x000000000000e240UL, 0x000000000000e240UL, 0x000000000000e240UL, 0x000000000000e240UL,
  0x104a00ff0000e240UL, 0x000000000000e3faUL, 0x000000000000e200UL, 0x000000000000e200UL,
  0x000000000000e200UL, 0x000000000000e1c0UL, 0x000000000000e1c0UL, 0x000000000000e1c0UL,
  0xe00000000000e1c0UL, 0xf759ff870000dd40UL, 0x000000000000e0b8UL, 0x000000000000e0c0UL,
  0x000000000000e080UL, 0x000000000000e080UL, 0x000000000000e040UL, 0x000000000000e040UL,
  0x000000000000e000UL, 0x000000000000e000UL, 0xcc6505ba0000e000UL, 0x06ab02ab0000e3afUL,
  0x100002ab0000db26UL, 0x470a00a40000d845UL, 0x6a50ff870000ccb0UL, 0x7df1ff160000c3f4UL,
  0x540000000000bd2cUL, 0x400000000000cc3cUL, 0x600000000000ddc0UL, 0x600000000000c180UL,
  0x600000000000c140UL, 0x400000000000c100UL, 0x400000000000df00UL, 0x600000000000df40UL,
  0x600000000000c080UL, 0x008020a10000c040UL, 0x0008c00028007c00UL, 0x342e000028020123UL,
  0x0080001000280028UL, 0x0000004000001400UL, 0x0000000000000002UL, 0x0010000000000024UL,
  0x00000006280c0042UL, 0x280d004300000007UL, 0x3431203f00000008UL, 0x0000000028110043UL,
  0x0080212100000000UL, 0x0008c18438007c00UL, 0x704dc41038020043UL, 0x380500c300002000UL,
  0x0000000000000000UL, 0x0000000000000000UL, 0x0010000000000024UL, 0x00000006380c0042UL,
  0x380d004300000007UL, 0x704de44f00000001UL, 0x0000000038110043UL, 0x0080200100000008UL,
  0x0088c10014007c00UL, 0x3431200014020043UL, 0x140500c300006400UL, 0x0000000000000000UL,
  0x0000000000000000UL, 0x0010000000000024UL, 0x00000006140c0042UL, 0x140d004300000007UL,
  0x3431e83f00000008UL, 0x0000000014110043UL, 0x008020c100000000UL, 0x0008c0002c007c00UL,
  0x342e00102c020123UL, 0x0080001000280028UL, 0x0000004000001400UL, 0x0000000000000002UL,
  0x0010000000000024UL, 0x000000062c0c0042UL, 0x2c0d004300000007UL, 0x3431203f00000008UL,
  0x000000002c110043UL, 0x0080206100000000UL, 0x0008c00020007c00UL, 0x342e002020020123UL,
  0x0080001000280028UL, 0x0000004000001400UL, 0x0000000000000002UL, 0x0010000000000024UL,
  0x00000006200c0042UL, 0x200d004300000007UL, 0x3431203f00000008UL, 0x0000000020110043UL,
  0x0080210100000000UL, 0x0008c00034007c00UL, 0x342e003034020123UL, 0x0080001000280028UL,
  0x0000004000001400UL, 0x0000000000000002UL, 0x0010000000000024UL, 0x00000006340c0042UL,
  0x340d004300000007UL, 0x3431203f00000008UL, 0x0000000034110043UL, 0x008020e100000000UL,
  0x0088010830007c00UL, 0x3431200030020043UL, 0x300500c300006400UL, 0x0000000000000000UL,
  0x0000000000000000UL, 0x0010000000000024UL, 0x00000006300c0042UL, 0x300d004300000007UL,
  0x3431e83f00000008UL, 0x0000000030110043UL, 0x0080204100000000UL, 0x000800081c007c00UL,
  0x342000001c020123UL, 0x0040001000280028UL, 0x0000001000000a00UL, 0x0001900000000004UL,
  0x0010000000000024UL, 0x000000061c0c0042UL, 0x1c0d004300000007UL, 0x3421903f00000004UL,
  0x000000001c110043UL, 0x10047c0000000000UL, 0x10097c0000000023UL, 0x100c01830000001bUL,
  0x000000130000000bUL, 0x0000000d00000001UL, 0x0000001500000013UL, 0x0000001300000007UL,
  0x0000001100000017UL, 0x0000001900000013UL, 0x00000025101d0043UL, 0x10007c00011b011aUL,
  0x1c00200100000001UL, 0x3c007c0030002001UL, 0x40007c0000000351UL, 0x44007c0000000041UL,
  0x48007c0000000041UL, 0x5800200100000041UL, 0x140020015c002001UL, 0x2800200120002001UL,
  0x340020012c002001UL, 0x1c007fe438002001UL, 0x0000000000000064UL, 0x0000006430007fe4UL,
  0x10007c0000000000UL, 0x1000042400000002UL, 0x0000000000000064UL, 0x4000000010007c00UL,
  0x0000006410007bc4UL, 0x10047c0000000000UL, 0x10097c0000000000UL, 0x100c018300000000UL,
  0x0000000000000000UL, 0x0000000000000000UL, 0x0000000000000000UL, 0x0000000000000000UL,
  0x0000000000000000UL, 0x0000000000000000UL, 0x00000000101d0043UL, 0x1c007c0000000000UL,
  0x1c00042400000002UL, 0x0000000000000064UL, 0x400000001c007c00UL, 0x000000641c007bc4UL,
  0x0080004100000000UL, 0x0000000230007c00UL, 0x0000006430000424UL, 0x30007c0000000000UL,
  0x30007bc440000000UL, 0x0000000000000064UL, 0x3c007c00008000e1UL, 0x3c00042400000002UL,
  0x0000000000000064UL, 0x400000003c007c00UL, 0x000000643c007bc4UL, 0x0080014100000000UL,
  0x0000000240007c00UL, 0x0000006440000424UL, 0x40007c0000000000UL, 0x40007bc440000000UL,
  0x0000000000000064UL, 0x44007c0000800161UL, 0x4400042400000002UL, 0x0000000000000064UL,
  0x4000000044007c00UL, 0x0000006444007bc4UL, 0x0080018100000000UL, 0x0000000248007c00UL,
  0x0000006448000424UL, 0x48007c0000000000UL, 0x48007bc440000000UL, 0x0000000000000064UL,
  0x58007c00008001a1UL, 0x5800042400881082UL, 0x0000000000000064UL, 0x4088108058007c00UL,
  0x0000006458007bc4UL, 0x0080022100000000UL, 0x080000025c007c00UL, 0x000000645c000424UL,
  0x5c007c0000000000UL, 0x5c007bc448000000UL, 0x0000000000000064UL, 0x14007c0000800241UL,
  0x1400042400000002UL, 0x0000000000000064UL, 0x4000000014007c00UL, 0x0000006414007bc4UL,
  0x0080000100000000UL, 0x0000000220007c00UL, 0x0000006420000424UL, 0x20007c0000000000UL,
  0x20007bc440000000UL, 0x0000000000000064UL, 0x28007c0000800061UL, 0x2800042400000002UL,
  0x0000000000000064UL, 0x4000000028007c00UL, 0x0000006428007bc4UL, 0x008000a100000000UL,
  0x000000022c007c00UL, 0x000000642c000424UL, 0x2c007c0000000000UL, 0x2c007bc440000000UL,
  0x0000000000000064UL, 0x34007c00008000c1UL, 0x3400042400000002UL, 0x0000000000000064UL,
  0x4000000034007c00UL, 0x0000006434007bc4UL, 0x0080010100000000UL, 0x0000000238007c00UL,
  0x0000006438000424UL, 0x38007c0000000000UL, 0x38007bc440000000UL, 0x0000000000000064UL,
  0x0000069d00800121UL, 0x3c007c0000802141UL, 0x3c02012300000350UL, 0x0000221104080303UL,
  0x0028014010b74005UL, 0x00270000013f0000UL, 0x0001010200030010UL, 0x3c0c004300000000UL,
  0x0000000000ffff89UL, 0x40007c0000802161UL, 0x400200e300000040UL, 0x0000221104080303UL,
  0x0028014010b74000UL, 0x00270000013f0000UL, 0x400a7c0000070410UL, 0x400c004300000000UL,
  0x0000000000ffff89UL, 0x44007c0000802181UL, 0x440200e300000040UL, 0x0000221104080303UL,
  0x0028014010b74000UL, 0x00270000013f0000UL, 0x440a7c00000b0810UL, 0x440c004300000000UL,
  0x0000000000ffff89UL, 0x48007c00008021a1UL, 0x480200e300000040UL, 0x0000221104080303UL,
  0x0028014010a34500UL, 0x00270000013f0000UL, 0x480a7c00000f0c10UL, 0x480c004300000000UL,
  0x0000000000ffff89UL, 0x6000004200802261UL, 0x156000fc08000000UL, 0x0009800060020123UL,
  0x0000000300000000UL, 0x0000c7ff0000063fUL, 0x0000000000007c80UL, 0x00000001060403fdUL,
  0x00000000600c0043UL, 0x600b7c0020422042UL, 0x6100200300000001UL, 0x00004815fff27c80UL,
  0x000076d700157c80UL, 0x00000ae600847c80UL, 0x00004413ffb67c80UL, 0x0000e9b301077c80UL,
  0x0000c42100967c80UL, 0x0000596400537c80UL, 0x000083b500e87c80UL, 0x0000252d00297c80UL,
  0x00003c63ffe87c80UL, 0x00003aee00187c80UL, 0x00001746005d7c80UL, 0x00002056ffd37c80UL,
  0x00001f5d00f87c80UL, 0x0000669b004b7c80UL, 0x00008a3cfff77c80UL, 0x00002d18006f7c80UL,
  0x000069aa00317c80UL, 0x0000bfb7ff8d7c80UL, 0x00002d4400c47c80UL, 0x00005dc9ffc87c80UL,
  0x0000f442005c7c80UL, 0x00003e8101027c80UL, 0x0000668600237c80UL, 0x00004364ffe77c80UL,
  0x0000bf52004f7c80UL, 0x0000ca8c00f87c80UL, 0x00004b5500377c80UL, 0x0000d19c01157c80UL,
  0x0000fb33003d7c80UL, 0x000089dc00c37c80UL, 0x0000eec7004b7c80UL, 0x00006aa7009b7c80UL,
  0x0000921000107c80UL, 0x00005d8800d07c80UL, 0x0000b4e2ffac7c80UL, 0x000050df00667c80UL,
  0x0000ac8900197c80UL, 0x0000b47800647c80UL, 0x0000c5c500c07c80UL, 0x0000510300ac7c80UL,
  0x00004805ffd47c80UL, 0x000016c500e87c80UL, 0x0000422600857c80UL, 0x000054ec00b67c80UL,
  0x0000cfbe00787c80UL, 0x0000eabf00057c80UL, 0x000090c1ff067c80UL, 0x0000fe6e00787c80UL,
  0x0000f0e9ffe57c80UL, 0x0000a38600bc7c80UL, 0x0000498bffc27c80UL, 0x00000700007f7c80UL,
  0x00008b3100527c80UL, 0x0000a659002a7c80UL, 0x0000544500f67c80UL, 0x000058e400de7c80UL,
  0x0000456600ca7c80UL, 0x0000a10e00787c80UL, 0x000054af003e7c80UL, 0x000002d5fff37c80UL,
  0x0000a3d4ffcd7c80UL, 0x00005dbfffb47c80UL, 0x0000e21bffdc7c80UL, 0x00005fcb00ab7c80UL,
  0x00006e2201537c80UL, 0x0000861e010e7c80UL, 0x0000787d00447c80UL, 0x000070db008f7c80UL,
  0x0000a35300587c80UL, 0x00000c3b00137c80UL, 0x0000821e00d77c80UL, 0x0000df18000f7c80UL,
  0x0000b0e000fa7c80UL, 0x0000cd4a003e7c80UL, 0x0000e568003a7c80UL, 0x00003e0d001c7c80UL,
  0x0000a32a00087c80UL, 0x000054d7008e7c80UL, 0x0000035900f77c80UL, 0x0000951bffec7c80UL,
  0x0000199a005b7c80UL, 0x00004c38006f7c80UL, 0x0000c44c00eb7c80UL, 0x0000c3da000a7c80UL,
  0x00006353fff77c80UL, 0x00004c4d00977c80UL, 0x00007bde00ca7c80UL, 0x0000cd3600167c80UL,
  0x00008c68012f7c80UL, 0x000068aaffc27c80UL, 0x00001e7e00ca7c80UL, 0x000039b700c57c80UL,
  0x0000cfa7004b7c80UL, 0x0000636f002e7c80UL, 0x00007a6200f07c80UL, 0x0000f03a00167c80UL,
  0x0000eaf4006e7c80UL, 0x0000de68003b7c80UL, 0x00007fba00bb7c80UL, 0x00002aba005d7c80UL,
  0x000010d2ffec7c80UL, 0x0000a04300727c80UL, 0x0000e62300227c80UL, 0x000027e700ef7c80UL,
  0x0000943effc37c80UL, 0x00001440008b7c80UL, 0x000038ba005b7c80UL, 0x00006a2a012b7c80UL,
  0x00005d04ffcc7c80UL, 0x000077f500c07c80UL, 0x000042f0008b7c80UL, 0x00000432011b7c80UL,
  0x0000a04e00867c80UL, 0x0000471101037c80UL, 0x000061c9ffff7c80UL, 0x0000e3ed00607c80UL,
  0x0000dbf400017c80UL, 0x0000ddd2009e7c80UL, 0x00000abb002f7c80UL, 0x000093cd006c7c80UL,
  0x000026d300587c80UL, 0x0000d11000027c80UL, 0x0000989a00ae7c80UL, 0x00007475fffe7c80UL,
  0x0000139c00d07c80UL, 0x00002bdd01127c80UL, 0x0000d58bffa47c80UL, 0x54007c0000802201UL,
  0x540200430174104cUL, 0x0210224f00087f80UL, 0x0000000055000203UL, 0x0000000200000001UL,
  0x0000000400000003UL, 0x0000000600000005UL, 0x0000000800000007UL, 0x0000000a00000009UL,
  0x0000000c0000000bUL, 0x0000000f0000004dUL, 0x56000603000000d0UL, 0x0000e28000000000UL,
  0x0000e28000000000UL, 0x0000bed699b7fdb7UL, 0x0000e24000000000UL, 0x0000e0c0fd170000UL,
  0x0000df14f544ffb9UL, 0x0000df72f8e40000UL, 0x0000dfe6005500ffUL, 0x0000e01b0472038eUL,
  0x0000e03e01110444UL, 0x0000dac12d28016cUL, 0x0000d60748ad002bUL, 0x0000d10a5cbeff89UL,
  0x0000d6804aab0000UL, 0x0000fad6e6ef0222UL, 0x0000d86848000000UL, 0x0000df8040000000UL,
  0x0000df8040000000UL, 0x0000dfc040000000UL, 0x0000dfc040000000UL, 0x0000e00040000000UL,
  0x0000e00040000000UL, 0x0000c10060000000UL, 0x0000e04040000000UL, 0x38007c0000802121UL,
  0x380201230008c000UL, 0x0028002834200000UL, 0x00000a0000400008UL, 0x0000000200000020UL,
  0x0000002400000000UL, 0x380c004200100000UL, 0x0000000700000006UL, 0x00000040380d0043UL,
  0x381100433421903fUL, 0x0000000000000000UL, 0x18007c0000802021UL, 0x180200430008c184UL,
  0x00012000703ac000UL, 0x00000000180500c3UL, 0x0000000000000000UL, 0x0000002400000000UL,
  0x180c004200100000UL, 0x0000000700000006UL, 0x00000001180d0043UL, 0x18110043703be03fUL,
  0x0000000800000000UL, 0x2c007c00008020c1UL, 0x2c0200430088c100UL, 0x000006403432e200UL,
  0x000000002c0500c3UL, 0x0000000000000000UL, 0x0000002400000000UL, 0x2c0c004200900000UL,
  0x0000000700000006UL, 0x000000402c0d0043UL, 0x2c1100433432eebfUL, 0x0000000000000000UL,
  0x20007c0000802061UL, 0x200201230008c000UL, 0x0028002834200008UL, 0x00000a0000400008UL,
  0x0000000200000020UL, 0x0000002400000000UL, 0x200c004200100000UL, 0x0000000700000006UL,
  0x00000040200d0043UL, 0x201100433421903fUL, 0x0000000000000000UL, 0x30007c00008020e1UL,
  0x300201230008c000UL, 0x0028002834200010UL, 0x00000a0000400008UL, 0x0000000200000020UL,
  0x0000002400000000UL, 0x300c004200100000UL, 0x0000000700000006UL, 0x00000040300d0043UL,
  0x301100433421903fUL, 0x0000000000000000UL, 0x24007c0000802081UL, 0x240201230008c000UL,
  0x0028002834200018UL, 0x00000a0000400008UL, 0x0000000200000020UL, 0x0000002400000000UL,
  0x240c004200100000UL, 0x0000000700000006UL, 0x00000040240d0043UL, 0x241100433421903fUL,
  0x0000000000000000UL, 0x14007c0000802001UL, 0x1402004300880108UL, 0x000006403432e200UL,
  0x00000000140500c3UL, 0x0000000000000000UL, 0x0000002400000000UL, 0x140c004200100000UL,
  0x0000000700000006UL, 0x00000040140d0043UL, 0x141100433432eebfUL, 0x0000000000000000UL,
  0x1c007c0000802041UL, 0x1c02012300080008UL, 0x001400143431e800UL, 0x00000a0000800004UL,
  0x0000002000000004UL, 0x000000240000c800UL, 0x1c0c004200100000UL, 0x0000000700000006UL,
  0x000000201c0d0043UL, 0x1c1100433432b03fUL, 0x0000000000000000UL, 0x0000001b10027c00UL,
  0x0000002110047c00UL, 0x00000013100c0183UL, 0x0000000d00000003UL, 0x0000000300000007UL,
  0x0000000f00000015UL, 0x0000001700000003UL, 0x0000000300000009UL, 0x101c7c0000000019UL,
  0x10207c0000000027UL, 0x10007c00011b011aUL, 0x1400200100000001UL, 0x3c007c001c002001UL,
  0x40007c0000000351UL, 0x44007c0000000041UL, 0x48007c0000000041UL, 0x5400200100000041UL,
  0x1800200160002001UL, 0x2400200120002001UL, 0x300020012c002001UL, 0x14007fe438002001UL,
  0x0000000000000064UL, 0x000000641c007fe4UL, 0x10007c0000000000UL, 0x1000042400000002UL,
  0x0000000000000064UL, 0x4000000010007c00UL, 0x0000006410007bc4UL, 0x10027c0000000000UL,
  0x10047c0000000000UL, 0x100c018300000000UL, 0x0000000000000000UL, 0x0000000000000000UL,
  0x0000000000000000UL, 0x0000000000000000UL, 0x0000000000000000UL, 0x0000000000000000UL,
  0x00000000101c7c00UL, 0x0000000010207c00UL, 0x0000000214007c00UL, 0x0000006414000424UL,
  0x14007c0000000000UL, 0x14007bc440000000UL, 0x0000000000000064UL, 0x1c007c0000800001UL,
  0x1c00042400000002UL, 0x0000000000000064UL, 0x400000001c007c00UL, 0x000000641c007bc4UL,
  0x0080004100000000UL, 0x000000023c007c00UL, 0x000000643c000424UL, 0x3c007c0000000000UL,
  0x3c007bc440000000UL, 0x0000000000000064UL, 0x40007c0000800141UL, 0x4000042400000002UL,
  0x0000000000000064UL, 0x4000000040007c00UL, 0x0000006440007bc4UL, 0x0080016100000000UL,
  0x0000000244007c00UL, 0x0000006444000424UL, 0x44007c0000000000UL, 0x44007bc440000000UL,
  0x0000000000000064UL, 0x48007c0000800181UL, 0x4800042400000002UL, 0x0000000000000064UL,
  0x4000000048007c00UL, 0x0000006448007bc4UL, 0x008001a100000000UL, 0x0088108254007c00UL,
  0x0000006454000424UL, 0x54007c0000000000UL, 0x54007bc440881080UL, 0x0000000000000064UL,
  0x60007c0000800201UL, 0x6000042408000002UL, 0x0000000000000064UL, 0x4800000060007c00UL,
  0x0000006460007bc4UL, 0x0080026100000000UL, 0x0000000218007c00UL, 0x0000006418000424UL,
  0x18007c0000000000UL, 0x18007bc440000000UL, 0x0000000000000064UL, 0x20007c0000800021UL,
  0x2000042400000002UL, 0x0000000000000064UL, 0x4000000020007c00UL, 0x0000006420007bc4UL,
  0x0080006100000000UL, 0x0000000224007c00UL, 0x0000006424000424UL, 0x24007c0000000000UL,
  0x24007bc440000000UL, 0x0000000000000064UL, 0x2c007c0000800081UL, 0x2c00042400000002UL,
  0x0000000000000064UL, 0x400000002c007c00UL, 0x000000642c007bc4UL, 0x008000c100000000UL,
  0x0000000230007c00UL, 0x0000006430000424UL, 0x30007c0000000000UL, 0x30007bc440000000UL,
  0x0000000000000064UL, 0x38007c00008000e1UL, 0x3800042400000002UL, 0x0000000000000064UL,
  0x4000000038007c00UL, 0x0000006438007bc4UL, 0x0080012100000000UL, 0x00802141000006bdUL,
  0x000003503c007c00UL, 0x101001013c020123UL, 0x10b7400300001100UL, 0x013f000000140140UL,
  0x000f004000130000UL, 0x0000000000010102UL, 0x00ffff8a3c0c0043UL, 0x0080216100000000UL,
  0x0000004040007c00UL, 0x10100101400200e3UL, 0x10b7400000001100UL, 0x013f000000140140UL,
  0x001f104000130000UL, 0x00000000400a7c00UL, 0x00ffff8a400c0043UL, 0x0080218100000000UL,
  0x0000004044007c00UL, 0x10100101440200e3UL, 0x10b7400000001100UL, 0x013f000000140140UL,
  0x002f204000130000UL, 0x00000000440a7c00UL, 0x00ffff8a440c0043UL, 0x008021a100000000UL,
  0x0000004048007c00UL, 0x10100101480200e3UL, 0x10a3430000001100UL, 0x013f000000140140UL,
  0x003f304000130000UL, 0x00000000480a7c00UL, 0x00ffff8a480c0043UL, 0x0080228100000000UL,
  0x0800000064000042UL, 0x64020123156000fcUL, 0x0000000000098000UL, 0x000018ff0000000fUL,
  0x0000477f0000c7ffUL, 0x060403f100000000UL, 0x640c004300000001UL, 0x2042204200000000UL,
  0x00000001640b7c00UL, 0x0181477f65002003UL, 0x0194477f0000830bUL, 0x00c2477f000089d5UL,
  0x00ed477f0000f7abUL, 0x0042477f0000d695UL, 0x0133477f00005aefUL, 0x010d477f00007c58UL,
  0x00ec477f0000ebe4UL, 0x0067477f00004d58UL, 0x00fe477f00005374UL, 0x0124477f000074b3UL,
  0x0085477f0000aef6UL, 0x0139477f0000e876UL, 0x01d9477f00002d1dUL, 0x0134477f0000a09aUL,
  0x0127477f0000b526UL, 0x00bc477f00004451UL, 0x00da477f00004ca9UL, 0x00f8477f0000913cUL,
  0x00f3477f000034f0UL, 0x00cd477f0000ced9UL, 0x015c477f00001777UL, 0x0184477f0000c025UL,
  0x0175477f0000f7d4UL, 0x013d477f00000c74UL, 0x010a477f00006684UL, 0x00fe477f0000be9aUL,
  0x00f9477f00003624UL, 0x006c477f0000917dUL, 0x0104477f000009fbUL, 0x01b2477f00003758UL,
  0x00b1477f0000ce67UL, 0x0146477f0000d37eUL, 0x0151477f00008c12UL, 0x0121477f0000053dUL,
  0x011a477f00000d7eUL, 0x015b477f00007d4bUL, 0x00be477f00007e68UL, 0x0116477f0000fcd4UL,
  0x01ac477f000067a3UL, 0x014e477f00004725UL, 0x0143477f00005e02UL, 0x0114477f0000e4d7UL,
  0x0166477f00007c17UL, 0x017f477f000062d2UL, 0x0147477f000061dfUL, 0x00d0477f0000fa7fUL,
  0x0179477f00002101UL, 0x0142477f00007b7bUL, 0x012a477f00000b2bUL, 0x0096477f0000c20aUL,
  0x015f477f00001266UL, 0x00c4477f000028d0UL, 0x0226477f0000f518UL, 0x00ec477f00004abeUL,
  0x0113477f0000d367UL, 0x0123477f0000b778UL, 0x0100477f00004979UL, 0x00ed477f000018c0UL,
  0x00b8477f0000a0f5UL, 0x0138477f00008770UL, 0x0183477f0000ee8dUL, 0x0188477f00003007UL,
  0x0037477f00006c9dUL, 0x017f477f00009154UL, 0x014c477f0000c42eUL, 0x0102477f0000ef95UL,
  0x0110477f0000162cUL, 0x0127477f0000f56eUL, 0x0115477f00004d41UL, 0x00f9477f00005295UL,
  0x0145477f00006dbdUL, 0x0129477f00006e14UL, 0x0169477f00004aadUL, 0x0150477f0000872bUL,
  0x00d7477f0000cf9dUL, 0x010c477f000063f2UL, 0x0128477f00001238UL, 0x013d477f00000000UL,
  0x0179477f0000dab3UL, 0x0178477f0000efaaUL, 0x01bd477f0000f56cUL, 0x0168477f00000903UL,
  0x00e8477f0000dd5dUL, 0x0116477f000025d0UL, 0x015d477f00007093UL, 0x016d477f0000ba63UL,
  0x013e477f00003a84UL, 0x016a477f00007b92UL, 0x014c477f00008169UL, 0x00cd477f000033e6UL,
  0x0036477f0000a676UL, 0x0137477f000019f8UL, 0x0141477f00006e40UL, 0x015b477f0000babcUL,
  0x016f477f0000a227UL, 0x015f477f00007f6fUL, 0x010a477f0000b7cfUL, 0x011f477f0000800bUL,
  0x0152477f00008d31UL, 0x017d477f000073aaUL, 0x011c477f00005b83UL, 0x00cf477f00004e07UL,
  0x00e1477f00000303UL, 0x0129477f000083beUL, 0x0151477f0000893cUL, 0x015d477f000055acUL,
  0x0159477f0000b173UL, 0x015e477f0000426cUL, 0x0160477f000025a2UL, 0x01a7477f00002bfeUL,
  0x0161477f0000c63eUL, 0x0156477f0000263cUL, 0x012b477f00006e82UL, 0x015a477f00003f29UL,
  0x010b477f0000606aUL, 0x014f477f00008c29UL, 0x00f4477f00005840UL, 0x0139477f00005dd8UL,
  0x0141477f0000d6ecUL, 0x011f477f0000586cUL, 0x0138477f0000cbc0UL, 0x011b477f000032dfUL,
  0x00ff477f0000153aUL, 0x0179477f00000ca2UL, 0x012f477f0000964bUL, 0x0176477f00009c50UL,
  0x0186477f00005721UL, 0x008020610000d180UL, 0x0008c00020007c00UL, 0x3431e80020020123UL,
  0x0080001000140014UL, 0x0000004000000a00UL, 0x0000000000000002UL, 0x0010000000000024UL,
  0x00000006200c0042UL, 0x200d004300000007UL, 0x3432b03f00000010UL, 0x0000000020110043UL,
  0x0080204100000000UL, 0x0008c1841c007c00UL, 0x704c5b401c020043UL, 0x1c0500c300004000UL,
  0x0000000000000000UL, 0x0000000000000000UL, 0x0010000000000024UL, 0x000000061c0c0042UL,
  0x1c0d004300000007UL, 0x704c9b7f00000001UL, 0x000000001c110043UL, 0x008020e100000008UL,
  0x0088c10030007c00UL, 0x3432b00030020043UL, 0x300500c300001900UL, 0x0000000000000000UL,
  0x0000000000000000UL, 0x0010000000000024UL, 0x00000006300c0042UL, 0x300d004300000007UL,
  0x3432e23f00000010UL, 0x0000000030110043UL, 0x0080208100000000UL, 0x0008c00024007c00UL,
  0x3431e81024020123UL, 0x0080001000140014UL, 0x0000004000000a00UL, 0x0000000000000002UL,
  0x0010000000000024UL, 0x00000006240c0042UL, 0x240d004300000007UL, 0x3432b03f00000010UL,
  0x0000000024110043UL, 0x0080210100000000UL, 0x0008c00034007c00UL, 0x3431e82034020123UL,
  0x0080001000140014UL, 0x0000004000000a00UL, 0x0000000000000002UL, 0x0010000000000024UL,
  0x00000006340c0042UL, 0x340d004300000007UL, 0x3432b03f00000010UL, 0x0000000034110043UL,
  0x0080202100000000UL, 0x0008c00018007c00UL, 0x3431e83018020123UL, 0x0080001000140014UL,
  0x0000004000000a00UL, 0x0000000000000002UL, 0x0010000000000024UL, 0x00000006180c0042UL,
  0x180d004300000007UL, 0x3432b03f00000010UL, 0x0000000018110043UL, 0x0080200100000000UL,
  0x0088010814007c00UL, 0x3432b00014020043UL, 0x140500c300001900UL, 0x0000000000000000UL,
  0x0000000000000000UL, 0x0010000000000024UL, 0x00000006140c0042UL, 0x140d004300000007UL,
  0x3432e23f00000010UL, 0x0000000014110043UL, 0x008020c100000000UL, 0x000800082c007c00UL,
  0x343120002c020123UL, 0x0080001000140014UL, 0x0000001000000a00UL, 0x0000c80000000008UL,
  0x0010000000000024UL, 0x000000062c0c0042UL, 0x2c0d004300000007UL, 0x3431e83f00000008UL,
  0x000000002c110043UL, 0x10027c0000000000UL, 0x10087c000000001bUL, 0x100c018300000029UL,
  0x0000000500000007UL, 0x000000090000000fUL, 0x0000001500000005UL, 0x0000000500000011UL,
  0x0000000300000017UL, 0x0000001900000005UL, 0x011b011a10227c00UL, 0x0000000110007c00UL,
  0x2c00200114002001UL, 0x000003513c007c00UL, 0x0000004140007c00UL, 0x0000004144007c00UL,
  0x0000004148007c00UL, 0x1800200164002001UL, 0x200020011c002001UL, 0x3000200124002001UL,
  0x14007fe434002001UL, 0x0000000000000064UL, 0x000000642c007fe4UL, 0x10007c0000000000UL,
  0x1000042400000002UL, 0x0000000000000064UL, 0x4000000010007c00UL, 0x0000006410007bc4UL,
  0x10027c0000000000UL, 0x10087c0000000000UL, 0x100c018300000000UL, 0x0000000000000000UL,
  0x0000000000000000UL, 0x0000000000000000UL, 0x0000000000000000UL, 0x0000000000000000UL,
  0x0000000000000000UL, 0x0000000010227c00UL, 0x0000000214007c00UL, 0x0000006414000424UL,
  0x14007c0000000000UL, 0x14007bc440000000UL, 0x0000000000000064UL, 0x2c007c0000800001UL,
  0x2c00042400000002UL, 0x0000000000000064UL, 0x400000002c007c00UL, 0x000000642c007bc4UL,
  0x008000c100000000UL, 0x000000023c007c00UL, 0x000000643c000424UL, 0x3c007c0000000000UL,
  0x3c007bc440000000UL, 0x0000000000000064UL, 0x40007c0000800141UL, 0x4000042400000002UL,
  0x0000000000000064UL, 0x4000000040007c00UL, 0x0000006440007bc4UL, 0x0080016100000000UL,
  0x0000000244007c00UL, 0x0000006444000424UL, 0x44007c0000000000UL, 0x44007bc440000000UL,
  0x0000000000000064UL, 0x48007c0000800181UL, 0x4800042400000002UL, 0x0000000000000064UL,
  0x4000000048007c00UL, 0x0000006448007bc4UL, 0x008001a100000000UL, 0x0800000264007c00UL,
  0x0000006464000424UL, 0x64007c0000000000UL, 0x64007bc448000000UL, 0x0000000000000064UL,
  0x18007c0000800281UL, 0x1800042400000002UL, 0x0000000000000064UL, 0x4000000018007c00UL,
  0x0000006418007bc4UL, 0x0080002100000000UL, 0x000000021c007c00UL, 0x000000641c000424UL,
  0x1c007c0000000000UL, 0x1c007bc440000000UL, 0x0000000000000064UL, 0x20007c0000800041UL,
  0x2000042400000002UL, 0x0000000000000064UL, 0x4000000020007c00UL, 0x0000006420007bc4UL,
  0x0080006100000000UL, 0x0000000224007c00UL, 0x0000006424000424UL, 0x24007c0000000000UL,
  0x24007bc440000000UL, 0x0000000000000064UL, 0x30007c0000800081UL, 0x3000042400000002UL,
  0x0000000000000064UL, 0x4000000030007c00UL, 0x0000006430007bc4UL, 0x008000e100000000UL,
  0x0000000234007c00UL, 0x0000006434000424UL, 0x34007c0000000000UL, 0x34007bc440000000UL,
  0x0000000000000064UL, 0x0000000c00800101UL
};

#define _ec_blob_network_50_address _ec_blob_network_50

ECBLOB_CONST_SECTION
// aligned to the cache line size (equal to 64 bytes)
__attribute__((aligned(64)))
static const uint64_t _ec_blob_network_62[728] =
{
  0x000005aeca057a7aUL, 0x008022a1000007ddUL, 0x0800000068000042UL, 0x68027c0015000060UL,
  0x6807004300080000UL, 0x0000ffc0ce846a0aUL, 0x00000000680c0043UL, 0x0080214110411041UL,
  0x000003503c007c00UL, 0x040803033c020123UL, 0x10b7400400001155UL, 0x009f0000001400a0UL,
  0x0003001000130000UL, 0x0000000000010102UL, 0x00ffff8f3c0c0043UL, 0x0080216100000000UL,
  0x0000004040007c00UL, 0x04080303400200e3UL, 0x10b7400000001155UL, 0x009f0000001400a0UL,
  0x0007041000130000UL, 0x00000000400a7c00UL, 0x00ffff8f400c0043UL, 0x0080218100000000UL,
  0x0000004044007c00UL, 0x04080303440200e3UL, 0x10b7400000001155UL, 0x009f0000001400a0UL,
  0x000b081000130000UL, 0x00000000440a7c00UL, 0x00ffff8f440c0043UL, 0x008021a100000000UL,
  0x0000004048007c00UL, 0x04080303480200e3UL, 0x10a3440000001155UL, 0x009f0000001400a0UL,
  0x000f0c1000130000UL, 0x00000000480a7c00UL, 0x00ffff8f480c0043UL, 0x0080224100000000UL,
  0x080000005c000042UL, 0x5c020123156000fcUL, 0x0000000000098000UL, 0x0000063f00000003UL,
  0x00005092000063ffUL, 0x070403fd00000000UL, 0x5c0c004300000001UL, 0x2042204200000000UL,
  0x000000015c0b7c00UL, 0x000750925d001003UL, 0x000f5092000008d3UL, 0x01245092000046c9UL,
  0x00b350920000295fUL, 0x001d50920000f5b5UL, 0x00e75092000084a1UL, 0x001a509200000b6fUL,
  0x005e50920000e6e2UL, 0x0138509200001de3UL, 0x0064509200007638UL, 0x00b6509200005a35UL,
  0x002b50920000016cUL, 0x00b450920000357cUL, 0x004b509200002810UL, 0x01235092000045afUL,
